{
  "version": "1.0",
  "truncation": null,
  "padding": null,
  "added_tokens": [
    {
      "id": 0,
      "content": "[PAD]",
      "single_word": false,
      "lstrip": false,
      "rstrip": false,
      "normalized": false,
      "special": true
    },
    {
      "id": 1,
      "content": "[UNK]",
      "single_word": false,
      "lstrip": false,
      "rstrip": false,
      "normalized": false,
      "special": true
    },
    {
      "id": 2,
      "content": "[BOS]",
      "single_word": false,
      "lstrip": false,
      "rstrip": false,
      "normalized": false,
      "special": true
    },
    {
      "id": 3,
      "content": "[EOS]",
      "single_word": false,
      "lstrip": false,
      "rstrip": false,
      "normalized": false,
      "special": true
    }
  ],
  "normalizer": null,
  "pre_tokenizer": { 
    "type": "Whitespace"
  },
  "post_processor": null,
  "decoder": null,
  "model": {
    "type": "BPE",
    "dropout": null,
    "unk_token": "[UNK]",
    "continuing_subword_prefix": null,
    "end_of_word_suffix": null,
    "fuse_unk": false,
    "byte_fallback": false,
    "ignore_merges": false,
    "vocab": {
      "[PAD]": 0,
      "[UNK]": 1,
      "[BOS]": 2,
      "[EOS]": 3,
      "!": 4,
      "\"": 5,
      "#": 6,
      "$": 7,
      "%": 8,
      "&": 9,
      "'": 10,
      "(": 11,
      ")": 12,
      "*": 13,
      "+": 14,
      ",": 15,
      "-": 16,
      ".": 17,
      "/": 18,
      "0": 19,
      "1": 20,
      "2": 21,
      "3": 22,
      "4": 23,
      "5": 24,
      "6": 25,
      "7": 26,
      "8": 27,
      "9": 28,
      ":": 29,
      ";": 30,
      "<": 31,
      "=": 32,
      ">": 33,
      "?": 34,
      "@": 35,
      "A": 36,
      "B": 37,
      "C": 38,
      "D": 39,
      "E": 40,
      "F": 41,
      "G": 42,
      "H": 43,
      "I": 44,
      "J": 45,
      "K": 46,
      "L": 47,
      "M": 48,
      "N": 49,
      "O": 50,
      "P": 51,
      "Q": 52,
      "R": 53,
      "S": 54,
      "T": 55,
      "U": 56,
      "V": 57,
      "W": 58,
      "X": 59,
      "Y": 60,
      "Z": 61,
      "[": 62,
      "\\": 63,
      "]": 64,
      "^": 65,
      "_": 66,
      "`": 67,
      "a": 68,
      "b": 69,
      "c": 70,
      "d": 71,
      "e": 72,
      "f": 73,
      "g": 74,
      "h": 75,
      "i": 76,
      "j": 77,
      "k": 78,
      "l": 79,
      "m": 80,
      "n": 81,
      "o": 82,
      "p": 83,
      "q": 84,
      "r": 85,
      "s": 86,
      "t": 87,
      "u": 88,
      "v": 89,
      "w": 90,
      "x": 91,
      "y": 92,
      "z": 93,
      "{": 94,
      "|": 95,
      "}": 96,
      "~": 97,
      "": 98,
      "": 99,
      "": 100,
      "": 101,
      "": 102,
      "": 103,
      "": 104,
      "": 105,
      "¢": 106,
      "£": 107,
      "¥": 108,
      "¦": 109,
      "§": 110,
      "©": 111,
      "«": 112,
      "¬": 113,
      "­": 114,
      "®": 115,
      "°": 116,
      "±": 117,
      "²": 118,
      "³": 119,
      "´": 120,
      "µ": 121,
      "·": 122,
      "º": 123,
      "»": 124,
      "¼": 125,
      "½": 126,
      "À": 127,
      "Á": 128,
      "Â": 129,
      "Ç": 130,
      "È": 131,
      "É": 132,
      "Î": 133,
      "Ð": 134,
      "Ñ": 135,
      "Ó": 136,
      "Ô": 137,
      "×": 138,
      "Ø": 139,
      "Ú": 140,
      "Ü": 141,
      "ß": 142,
      "à": 143,
      "á": 144,
      "â": 145,
      "ã": 146,
      "ä": 147,
      "å": 148,
      "æ": 149,
      "ç": 150,
      "è": 151,
      "é": 152,
      "ê": 153,
      "ë": 154,
      "ì": 155,
      "í": 156,
      "î": 157,
      "ï": 158,
      "ð": 159,
      "ñ": 160,
      "ò": 161,
      "ó": 162,
      "ô": 163,
      "õ": 164,
      "ö": 165,
      "÷": 166,
      "ø": 167,
      "ù": 168,
      "ú": 169,
      "û": 170,
      "ü": 171,
      "ý": 172,
      "Ā": 173,
      "ā": 174,
      "ă": 175,
      "ć": 176,
      "Č": 177,
      "Đ": 178,
      "đ": 179,
      "ē": 180,
      "ĕ": 181,
      "ě": 182,
      "ğ": 183,
      "ĩ": 184,
      "ī": 185,
      "ĭ": 186,
      "İ": 187,
      "ı": 188,
      "ļ": 189,
      "ł": 190,
      "ń": 191,
      "ņ": 192,
      "ŋ": 193,
      "Ō": 194,
      "ō": 195,
      "ŏ": 196,
      "œ": 197,
      "ř": 198,
      "Ś": 199,
      "ś": 200,
      "Š": 201,
      "š": 202,
      "ţ": 203,
      "ũ": 204,
      "ū": 205,
      "ŭ": 206,
      "ű": 207,
      "Ż": 208,
      "Ž": 209,
      "ž": 210,
      "ơ": 211,
      "ư": 212,
      "ǎ": 213,
      "ǐ": 214,
      "ǒ": 215,
      "ǔ": 216,
      "ǫ": 217,
      "ț": 218,
      "ɐ": 219,
      "ɑ": 220,
      "ɒ": 221,
      "ɔ": 222,
      "ɕ": 223,
      "ə": 224,
      "ɛ": 225,
      "ɡ": 226,
      "ɦ": 227,
      "ɨ": 228,
      "ɪ": 229,
      "ɬ": 230,
      "ɾ": 231,
      "ʁ": 232,
      "ʂ": 233,
      "ʃ": 234,
      "ʈ": 235,
      "ʊ": 236,
      "ʌ": 237,
      "ʏ": 238,
      "ʒ": 239,
      "ʔ": 240,
      "ʰ": 241,
      "ʻ": 242,
      "ʼ": 243,
      "ˈ": 244,
      "ˌ": 245,
      "ː": 246,
      "́": 247,
      "̃": 248,
      "̌": 249,
      "̪": 250,
      "͡": 251,
      "Α": 252,
      "Β": 253,
      "Γ": 254,
      "Δ": 255,
      "Ο": 256,
      "Π": 257,
      "Χ": 258,
      "Ω": 259,
      "ά": 260,
      "έ": 261,
      "ή": 262,
      "ί": 263,
      "α": 264,
      "β": 265,
      "γ": 266,
      "δ": 267,
      "ε": 268,
      "ζ": 269,
      "η": 270,
      "θ": 271,
      "ι": 272,
      "κ": 273,
      "λ": 274,
      "μ": 275,
      "ν": 276,
      "ξ": 277,
      "ο": 278,
      "π": 279,
      "ρ": 280,
      "ς": 281,
      "σ": 282,
      "τ": 283,
      "υ": 284,
      "φ": 285,
      "χ": 286,
      "ψ": 287,
      "ω": 288,
      "ό": 289,
      "ύ": 290,
      "ώ": 291,
      "Ѕ": 292,
      "А": 293,
      "Б": 294,
      "В": 295,
      "Г": 296,
      "Д": 297,
      "И": 298,
      "Л": 299,
      "М": 300,
      "П": 301,
      "Р": 302,
      "С": 303,
      "Т": 304,
      "У": 305,
      "Ц": 306,
      "а": 307,
      "б": 308,
      "в": 309,
      "г": 310,
      "д": 311,
      "е": 312,
      "з": 313,
      "и": 314,
      "й": 315,
      "к": 316,
      "л": 317,
      "м": 318,
      "н": 319,
      "о": 320,
      "п": 321,
      "р": 322,
      "с": 323,
      "т": 324,
      "у": 325,
      "х": 326,
      "ц": 327,
      "ч": 328,
      "щ": 329,
      "ь": 330,
      "ю": 331,
      "я": 332,
      "і": 333,
      "ї": 334,
      "ң": 335,
      "ә": 336,
      "Ե": 337,
      "ա": 338,
      "ե": 339,
      "ն": 340,
      "ր": 341,
      "ւ": 342,
      "֙": 343,
      "ְ": 344,
      "ִ": 345,
      "ַ": 346,
      "ָ": 347,
      "ּ": 348,
      "ׁ": 349,
      "ׂ": 350,
      "ב": 351,
      "ה": 352,
      "ו": 353,
      "ז": 354,
      "ח": 355,
      "ט": 356,
      "י": 357,
      "ל": 358,
      "ם": 359,
      "מ": 360,
      "ן": 361,
      "ע": 362,
      "צ": 363,
      "ר": 364,
      "ש": 365,
      "ת": 366,
      "أ": 367,
      "ا": 368,
      "ب": 369,
      "ة": 370,
      "ت": 371,
      "ث": 372,
      "ج": 373,
      "ح": 374,
      "د": 375,
      "ر": 376,
      "ز": 377,
      "س": 378,
      "ص": 379,
      "ط": 380,
      "ظ": 381,
      "ع": 382,
      "غ": 383,
      "ف": 384,
      "ق": 385,
      "ك": 386,
      "ل": 387,
      "م": 388,
      "ن": 389,
      "ه": 390,
      "و": 391,
      "ي": 392,
      "ّ": 393,
      "ْ": 394,
      "ٹ": 395,
      "ٽ": 396,
      "پ": 397,
      "ڀ": 398,
      "ک": 399,
      "ھ": 400,
      "ی": 401,
      "ܐ": 402,
      "ܓ": 403,
      "ܘ": 404,
      "ܠ": 405,
      "ܬ": 406,
      "ं": 407,
      "अ": 408,
      "आ": 409,
      "उ": 410,
      "क": 411,
      "ग": 412,
      "च": 413,
      "ज": 414,
      "झ": 415,
      "ट": 416,
      "ड": 417,
      "ण": 418,
      "त": 419,
      "थ": 420,
      "द": 421,
      "ध": 422,
      "न": 423,
      "प": 424,
      "ब": 425,
      "म": 426,
      "य": 427,
      "र": 428,
      "ल": 429,
      "व": 430,
      "श": 431,
      "ष": 432,
      "स": 433,
      "ह": 434,
      "ा": 435,
      "ि": 436,
      "ी": 437,
      "ु": 438,
      "े": 439,
      "ो": 440,
      "ौ": 441,
      "्": 442,
      "এ": 443,
      "ক": 444,
      "গ": 445,
      "ছ": 446,
      "জ": 447,
      "ঠ": 448,
      "ড": 449,
      "ত": 450,
      "দ": 451,
      "প": 452,
      "য": 453,
      "ল": 454,
      "স": 455,
      "হ": 456,
      "়": 457,
      "া": 458,
      "ি": 459,
      "ে": 460,
      "இ": 461,
      "க": 462,
      "ங": 463,
      "ச": 464,
      "ட": 465,
      "ன": 466,
      "ப": 467,
      "ம": 468,
      "ய": 469,
      "ர": 470,
      "ல": 471,
      "ி": 472,
      "ு": 473,
      "ூ": 474,
      "ை": 475,
      "்": 476,
      "ಜ": 477,
      "ಲ": 478,
      "ಿ": 479,
      "ೆ": 480,
      "್": 481,
      "ം": 482,
      "ഈ": 483,
      "ക": 484,
      "ച": 485,
      "ജ": 486,
      "പ": 487,
      "യ": 488,
      "ര": 489,
      "റ": 490,
      "ഴ": 491,
      "വ": 492,
      "ി": 493,
      "ീ": 494,
      "ൂ": 495,
      "െ": 496,
      "്": 497,
      "ർ": 498,
      "ං": 499,
      "අ": 500,
      "ආ": 501,
      "ක": 502,
      "ග": 503,
      "ට": 504,
      "ම": 505,
      "ය": 506,
      "ර": 507,
      "ල": 508,
      "ශ": 509,
      "්": 510,
      "ා": 511,
      "ි": 512,
      "ී": 513,
      "ก": 514,
      "ข": 515,
      "ค": 516,
      "ฆ": 517,
      "ง": 518,
      "จ": 519,
      "ฉ": 520,
      "ช": 521,
      "ซ": 522,
      "ฌ": 523,
      "ญ": 524,
      "ฎ": 525,
      "ฏ": 526,
      "ฐ": 527,
      "ฑ": 528,
      "ฒ": 529,
      "ณ": 530,
      "ด": 531,
      "ต": 532,
      "ถ": 533,
      "ท": 534,
      "ธ": 535,
      "น": 536,
      "บ": 537,
      "ป": 538,
      "ผ": 539,
      "ฝ": 540,
      "พ": 541,
      "ฟ": 542,
      "ภ": 543,
      "ม": 544,
      "ย": 545,
      "ร": 546,
      "ฤ": 547,
      "ล": 548,
      "ว": 549,
      "ศ": 550,
      "ษ": 551,
      "ส": 552,
      "ห": 553,
      "ฬ": 554,
      "อ": 555,
      "ฮ": 556,
      "ฯ": 557,
      "ะ": 558,
      "ั": 559,
      "า": 560,
      "ำ": 561,
      "ิ": 562,
      "ี": 563,
      "ึ": 564,
      "ื": 565,
      "ุ": 566,
      "ู": 567,
      "ฺ": 568,
      "เ": 569,
      "แ": 570,
      "โ": 571,
      "ใ": 572,
      "ไ": 573,
      "ๆ": 574,
      "็": 575,
      "่": 576,
      "้": 577,
      "๊": 578,
      "๋": 579,
      "์": 580,
      "๐": 581,
      "๑": 582,
      "๒": 583,
      "๓": 584,
      "๕": 585,
      "๗": 586,
      "ກ": 587,
      "ຂ": 588,
      "ຄ": 589,
      "ງ": 590,
      "ຈ": 591,
      "ຊ": 592,
      "ຍ": 593,
      "ດ": 594,
      "ຕ": 595,
      "ຖ": 596,
      "ທ": 597,
      "ນ": 598,
      "ບ": 599,
      "ປ": 600,
      "ຜ": 601,
      "ພ": 602,
      "ມ": 603,
      "ຣ": 604,
      "ລ": 605,
      "ວ": 606,
      "ສ": 607,
      "ຫ": 608,
      "ອ": 609,
      "ະ": 610,
      "ັ": 611,
      "າ": 612,
      "ຳ": 613,
      "ິ": 614,
      "ີ": 615,
      "ື": 616,
      "ຸ": 617,
      "ູ": 618,
      "ົ": 619,
      "ຼ": 620,
      "ຽ": 621,
      "ເ": 622,
      "ແ": 623,
      "ໄ": 624,
      "່": 625,
      "້": 626,
      "ໍ": 627,
      "င": 628,
      "တ": 629,
      "ိ": 630,
      "ု": 631,
      "း": 632,
      "်": 633,
      "ក": 634,
      "ខ": 635,
      "គ": 636,
      "ឃ": 637,
      "ង": 638,
      "ច": 639,
      "ឆ": 640,
      "ជ": 641,
      "ឈ": 642,
      "ញ": 643,
      "ដ": 644,
      "ឋ": 645,
      "ឌ": 646,
      "ឍ": 647,
      "ណ": 648,
      "ត": 649,
      "ថ": 650,
      "ទ": 651,
      "ធ": 652,
      "ន": 653,
      "ប": 654,
      "ផ": 655,
      "ព": 656,
      "ភ": 657,
      "ម": 658,
      "យ": 659,
      "រ": 660,
      "ល": 661,
      "វ": 662,
      "ឝ": 663,
      "ឞ": 664,
      "ស": 665,
      "ហ": 666,
      "ឡ": 667,
      "អ": 668,
      "ឣ": 669,
      "ឤ": 670,
      "ឥ": 671,
      "ឦ": 672,
      "ឧ": 673,
      "ឩ": 674,
      "ឪ": 675,
      "ឫ": 676,
      "ឬ": 677,
      "ឭ": 678,
      "ឮ": 679,
      "ឯ": 680,
      "ឰ": 681,
      "ឱ": 682,
      "ឲ": 683,
      "ឳ": 684,
      "឵": 685,
      "ា": 686,
      "ិ": 687,
      "ី": 688,
      "ឹ": 689,
      "ឺ": 690,
      "ុ": 691,
      "ូ": 692,
      "ួ": 693,
      "ើ": 694,
      "ឿ": 695,
      "ៀ": 696,
      "េ": 697,
      "ែ": 698,
      "ៃ": 699,
      "ោ": 700,
      "ៅ": 701,
      "ំ": 702,
      "ះ": 703,
      "ៈ": 704,
      "៉": 705,
      "៊": 706,
      "់": 707,
      "៌": 708,
      "៍": 709,
      "៎": 710,
      "៏": 711,
      "័": 712,
      "៑": 713,
      "្": 714,
      "៓": 715,
      "។": 716,
      "៕": 717,
      "៖": 718,
      "ៗ": 719,
      "៘": 720,
      "៙": 721,
      "៚": 722,
      "៛": 723,
      "៝": 724,
      "០": 725,
      "១": 726,
      "២": 727,
      "៣": 728,
      "៤": 729,
      "៥": 730,
      "៦": 731,
      "៧": 732,
      "៨": 733,
      "៩": 734,
      "᧥": 735,
      "ᵻ": 736,
      "ḇ": 737,
      "ḍ": 738,
      "ḏ": 739,
      "ḗ": 740,
      "ḷ": 741,
      "ṃ": 742,
      "ṅ": 743,
      "ṇ": 744,
      "Ṛ": 745,
      "ṛ": 746,
      "Ṣ": 747,
      "ṣ": 748,
      "ṭ": 749,
      "ṯ": 750,
      "ạ": 751,
      "ả": 752,
      "Ấ": 753,
      "ấ": 754,
      "ầ": 755,
      "ẩ": 756,
      "ậ": 757,
      "ắ": 758,
      "ằ": 759,
      "ẵ": 760,
      "ặ": 761,
      "ế": 762,
      "ề": 763,
      "ể": 764,
      "ễ": 765,
      "ệ": 766,
      "ỉ": 767,
      "ị": 768,
      "ọ": 769,
      "ỏ": 770,
      "ố": 771,
      "ồ": 772,
      "ổ": 773,
      "ỗ": 774,
      "ộ": 775,
      "ớ": 776,
      "ờ": 777,
      "ợ": 778,
      "ụ": 779,
      "Ủ": 780,
      "ủ": 781,
      "ứ": 782,
      "ừ": 783,
      "ử": 784,
      "ữ": 785,
      "ự": 786,
      "ỳ": 787,
      "ỹ": 788,
      "ἄ": 789,
      "Ἀ": 790,
      "ἐ": 791,
      "ἕ": 792,
      "Ἰ": 793,
      "ὀ": 794,
      "ὄ": 795,
      "ῦ": 796,
      "‌": 797,
      "‍": 798,
      "‎": 799,
      "‏": 800,
      "‑": 801,
      "–": 802,
      "—": 803,
      "‘": 804,
      "’": 805,
      "“": 806,
      "”": 807,
      "‟": 808,
      "•": 809,
      "…": 810,
      "‧": 811,
      "′": 812,
      "‹": 813,
      "›": 814,
      "※": 815,
      "⁄": 816,
      "₣": 817,
      "₱": 818,
      "℃": 819,
      "↑": 820,
      "→": 821,
      "∀": 822,
      "−": 823,
      "∠": 824,
      "∼": 825,
      "≠": 826,
      "≤": 827,
      "─": 828,
      "┬": 829,
      "▶": 830,
      "●": 831,
      "◦": 832,
      "☁": 833,
      "♔": 834,
      "♣": 835,
      "♥": 836,
      "♦": 837,
      "➽": 838,
      "⟨": 839,
      "⟩": 840,
      "、": 841,
      "。": 842,
      "《": 843,
      "》": 844,
      "「": 845,
      "」": 846,
      "【": 847,
      "う": 848,
      "え": 849,
      "か": 850,
      "く": 851,
      "た": 852,
      "ど": 853,
      "に": 854,
      "の": 855,
      "ゆ": 856,
      "る": 857,
      "れ": 858,
      "を": 859,
      "ア": 860,
      "ィ": 861,
      "カ": 862,
      "ギ": 863,
      "サ": 864,
      "テ": 865,
      "ラ": 866,
      "・": 867,
      "㵅": 868,
      "一": 869,
      "丁": 870,
      "七": 871,
      "万": 872,
      "三": 873,
      "上": 874,
      "下": 875,
      "不": 876,
      "且": 877,
      "世": 878,
      "丘": 879,
      "东": 880,
      "並": 881,
      "中": 882,
      "丰": 883,
      "主": 884,
      "乃": 885,
      "久": 886,
      "义": 887,
      "之": 888,
      "乎": 889,
      "乘": 890,
      "九": 891,
      "乞": 892,
      "亂": 893,
      "了": 894,
      "事": 895,
      "二": 896,
      "于": 897,
      "云": 898,
      "五": 899,
      "井": 900,
      "亚": 901,
      "些": 902,
      "亞": 903,
      "亟": 904,
      "交": 905,
      "亦": 906,
      "享": 907,
      "京": 908,
      "亮": 909,
      "人": 910,
      "仍": 911,
      "他": 912,
      "仙": 913,
      "代": 914,
      "令": 915,
      "以": 916,
      "仪": 917,
      "任": 918,
      "伊": 919,
      "伐": 920,
      "伯": 921,
      "伴": 922,
      "伺": 923,
      "似": 924,
      "伽": 925,
      "但": 926,
      "住": 927,
      "佐": 928,
      "佔": 929,
      "何": 930,
      "佗": 931,
      "佛": 932,
      "作": 933,
      "佳": 934,
      "使": 935,
      "來": 936,
      "例": 937,
      "侍": 938,
      "供": 939,
      "依": 940,
      "侯": 941,
      "侵": 942,
      "便": 943,
      "係": 944,
      "俘": 945,
      "保": 946,
      "信": 947,
      "修": 948,
      "倈": 949,
      "個": 950,
      "們": 951,
      "候": 952,
      "備": 953,
      "傳": 954,
      "僑": 955,
      "儀": 956,
      "儿": 957,
      "元": 958,
      "先": 959,
      "光": 960,
      "克": 961,
      "免": 962,
      "兒": 963,
      "入": 964,
      "內": 965,
      "全": 966,
      "八": 967,
      "公": 968,
      "六": 969,
      "共": 970,
      "兵": 971,
      "其": 972,
      "具": 973,
      "内": 974,
      "冊": 975,
      "凹": 976,
      "出": 977,
      "分": 978,
      "列": 979,
      "初": 980,
      "別": 981,
      "利": 982,
      "别": 983,
      "到": 984,
      "制": 985,
      "前": 986,
      "劉": 987,
      "力": 988,
      "加": 989,
      "动": 990,
      "助": 991,
      "努": 992,
      "勇": 993,
      "勒": 994,
      "勖": 995,
      "務": 996,
      "勢": 997,
      "勵": 998,
      "北": 999,
      "匠": 1000,
      "匯": 1001,
      "区": 1002,
      "區": 1003,
      "十": 1004,
      "協": 1005,
      "南": 1006,
      "博": 1007,
      "印": 1008,
      "即": 1009,
      "卿": 1010,
      "历": 1011,
      "厚": 1012,
      "原": 1013,
      "县": 1014,
      "又": 1015,
      "及": 1016,
      "叔": 1017,
      "取": 1018,
      "受": 1019,
      "叢": 1020,
      "口": 1021,
      "古": 1022,
      "另": 1023,
      "叩": 1024,
      "只": 1025,
      "可": 1026,
      "史": 1027,
      "司": 1028,
      "各": 1029,
      "同": 1030,
      "名": 1031,
      "向": 1032,
      "君": 1033,
      "吥": 1034,
      "吳": 1035,
      "吸": 1036,
      "呂": 1037,
      "周": 1038,
      "呼": 1039,
      "和": 1040,
      "咬": 1041,
      "咸": 1042,
      "哈": 1043,
      "哥": 1044,
      "唐": 1045,
      "商": 1046,
      "善": 1047,
      "喜": 1048,
      "單": 1049,
      "嗊": 1050,
      "嘉": 1051,
      "嚴": 1052,
      "四": 1053,
      "回": 1054,
      "因": 1055,
      "困": 1056,
      "固": 1057,
      "国": 1058,
      "國": 1059,
      "圍": 1060,
      "圓": 1061,
      "圖": 1062,
      "土": 1063,
      "在": 1064,
      "地": 1065,
      "坎": 1066,
      "坡": 1067,
      "坤": 1068,
      "垛": 1069,
      "城": 1070,
      "埔": 1071,
      "域": 1072,
      "基": 1073,
      "堅": 1074,
      "堡": 1075,
      "堤": 1076,
      "報": 1077,
      "場": 1078,
      "塡": 1079,
      "增": 1080,
      "墾": 1081,
      "壇": 1082,
      "壘": 1083,
      "壤": 1084,
      "士": 1085,
      "壽": 1086,
      "夏": 1087,
      "夕": 1088,
      "外": 1089,
      "多": 1090,
      "大": 1091,
      "天": 1092,
      "太": 1093,
      "夫": 1094,
      "头": 1095,
      "奇": 1096,
      "奈": 1097,
      "奐": 1098,
      "奘": 1099,
      "奢": 1100,
      "女": 1101,
      "奴": 1102,
      "好": 1103,
      "如": 1104,
      "妙": 1105,
      "始": 1106,
      "姚": 1107,
      "姫": 1108,
      "娄": 1109,
      "婁": 1110,
      "婆": 1111,
      "子": 1112,
      "學": 1113,
      "宁": 1114,
      "守": 1115,
      "安": 1116,
      "宋": 1117,
      "宗": 1118,
      "官": 1119,
      "定": 1120,
      "宮": 1121,
      "家": 1122,
      "容": 1123,
      "密": 1124,
      "富": 1125,
      "察": 1126,
      "實": 1127,
      "寧": 1128,
      "寨": 1129,
      "寿": 1130,
      "將": 1131,
      "尉": 1132,
      "尋": 1133,
      "少": 1134,
      "尔": 1135,
      "尖": 1136,
      "尚": 1137,
      "居": 1138,
      "屬": 1139,
      "山": 1140,
      "岸": 1141,
      "島": 1142,
      "崔": 1143,
      "崩": 1144,
      "川": 1145,
      "州": 1146,
      "工": 1147,
      "巧": 1148,
      "巴": 1149,
      "市": 1150,
      "帆": 1151,
      "帛": 1152,
      "帝": 1153,
      "師": 1154,
      "帶": 1155,
      "常": 1156,
      "平": 1157,
      "年": 1158,
      "幸": 1159,
      "幾": 1160,
      "庁": 1161,
      "府": 1162,
      "度": 1163,
      "座": 1164,
      "庶": 1165,
      "康": 1166,
      "廉": 1167,
      "廙": 1168,
      "廣": 1169,
      "延": 1170,
      "廷": 1171,
      "建": 1172,
      "开": 1173,
      "式": 1174,
      "引": 1175,
      "弘": 1176,
      "弱": 1177,
      "張": 1178,
      "強": 1179,
      "彌": 1180,
      "形": 1181,
      "彥": 1182,
      "彦": 1183,
      "彩": 1184,
      "彰": 1185,
      "役": 1186,
      "待": 1187,
      "很": 1188,
      "律": 1189,
      "後": 1190,
      "徐": 1191,
      "得": 1192,
      "從": 1193,
      "微": 1194,
      "徵": 1195,
      "徼": 1196,
      "徽": 1197,
      "心": 1198,
      "志": 1199,
      "忠": 1200,
      "怜": 1201,
      "思": 1202,
      "急": 1203,
      "性": 1204,
      "怯": 1205,
      "恩": 1206,
      "恾": 1207,
      "悅": 1208,
      "悲": 1209,
      "情": 1210,
      "意": 1211,
      "愛": 1212,
      "態": 1213,
      "慰": 1214,
      "應": 1215,
      "成": 1216,
      "我": 1217,
      "或": 1218,
      "戰": 1219,
      "戴": 1220,
      "戶": 1221,
      "戸": 1222,
      "房": 1223,
      "所": 1224,
      "才": 1225,
      "扎": 1226,
      "扣": 1227,
      "扶": 1228,
      "批": 1229,
      "承": 1230,
      "技": 1231,
      "投": 1232,
      "折": 1233,
      "拓": 1234,
      "招": 1235,
      "持": 1236,
      "指": 1237,
      "挣": 1238,
      "振": 1239,
      "授": 1240,
      "掘": 1241,
      "掠": 1242,
      "接": 1243,
      "提": 1244,
      "換": 1245,
      "援": 1246,
      "摩": 1247,
      "擁": 1248,
      "擄": 1249,
      "據": 1250,
      "擴": 1251,
      "攬": 1252,
      "支": 1253,
      "收": 1254,
      "攻": 1255,
      "政": 1256,
      "故": 1257,
      "救": 1258,
      "敗": 1259,
      "散": 1260,
      "文": 1261,
      "斯": 1262,
      "新": 1263,
      "斷": 1264,
      "方": 1265,
      "於": 1266,
      "施": 1267,
      "旃": 1268,
      "旅": 1269,
      "日": 1270,
      "昆": 1271,
      "昌": 1272,
      "明": 1273,
      "星": 1274,
      "映": 1275,
      "春": 1276,
      "昭": 1277,
      "是": 1278,
      "時": 1279,
      "晉": 1280,
      "暫": 1281,
      "暹": 1282,
      "曆": 1283,
      "曲": 1284,
      "更": 1285,
      "書": 1286,
      "曹": 1287,
      "曾": 1288,
      "最": 1289,
      "月": 1290,
      "有": 1291,
      "朝": 1292,
      "期": 1293,
      "木": 1294,
      "未": 1295,
      "本": 1296,
      "朱": 1297,
      "杀": 1298,
      "权": 1299,
      "李": 1300,
      "村": 1301,
      "杭": 1302,
      "東": 1303,
      "松": 1304,
      "林": 1305,
      "枝": 1306,
      "架": 1307,
      "柬": 1308,
      "柳": 1309,
      "柴": 1310,
      "树": 1311,
      "校": 1312,
      "根": 1313,
      "梁": 1314,
      "梓": 1315,
      "條": 1316,
      "棉": 1317,
      "棋": 1318,
      "棍": 1319,
      "森": 1320,
      "業": 1321,
      "榮": 1322,
      "槃": 1323,
      "構": 1324,
      "槐": 1325,
      "樂": 1326,
      "樓": 1327,
      "機": 1328,
      "檀": 1329,
      "檣": 1330,
      "次": 1331,
      "欽": 1332,
      "歐": 1333,
      "正": 1334,
      "此": 1335,
      "武": 1336,
      "歲": 1337,
      "歸": 1338,
      "殺": 1339,
      "毅": 1340,
      "比": 1341,
      "毛": 1342,
      "氏": 1343,
      "民": 1344,
      "水": 1345,
      "永": 1346,
      "求": 1347,
      "江": 1348,
      "汪": 1349,
      "沂": 1350,
      "沒": 1351,
      "沙": 1352,
      "沢": 1353,
      "沥": 1354,
      "河": 1355,
      "治": 1356,
      "沿": 1357,
      "泉": 1358,
      "法": 1359,
      "波": 1360,
      "泮": 1361,
      "泰": 1362,
      "洋": 1363,
      "洛": 1364,
      "洞": 1365,
      "洲": 1366,
      "派": 1367,
      "流": 1368,
      "浄": 1369,
      "海": 1370,
      "涅": 1371,
      "消": 1372,
      "淍": 1373,
      "淎": 1374,
      "淡": 1375,
      "混": 1376,
      "淺": 1377,
      "済": 1378,
      "渊": 1379,
      "渤": 1380,
      "温": 1381,
      "港": 1382,
      "湄": 1383,
      "湏": 1384,
      "湛": 1385,
      "溉": 1386,
      "源": 1387,
      "準": 1388,
      "溫": 1389,
      "滀": 1390,
      "滅": 1391,
      "漢": 1392,
      "潘": 1393,
      "潤": 1394,
      "潮": 1395,
      "潰": 1396,
      "潼": 1397,
      "澄": 1398,
      "澳": 1399,
      "濠": 1400,
      "濬": 1401,
      "瀝": 1402,
      "灌": 1403,
      "炅": 1404,
      "炮": 1405,
      "為": 1406,
      "無": 1407,
      "營": 1408,
      "爾": 1409,
      "版": 1410,
      "牙": 1411,
      "牧": 1412,
      "物": 1413,
      "特": 1414,
      "狀": 1415,
      "狡": 1416,
      "独": 1417,
      "獠": 1418,
      "獨": 1419,
      "獲": 1420,
      "玄": 1421,
      "玉": 1422,
      "王": 1423,
      "玖": 1424,
      "理": 1425,
      "瑜": 1426,
      "環": 1427,
      "甌": 1428,
      "甘": 1429,
      "甚": 1430,
      "生": 1431,
      "用": 1432,
      "甫": 1433,
      "田": 1434,
      "由": 1435,
      "申": 1436,
      "男": 1437,
      "留": 1438,
      "當": 1439,
      "疆": 1440,
      "發": 1441,
      "白": 1442,
      "的": 1443,
      "皮": 1444,
      "盈": 1445,
      "益": 1446,
      "盛": 1447,
      "盡": 1448,
      "盤": 1449,
      "目": 1450,
      "直": 1451,
      "相": 1452,
      "省": 1453,
      "眉": 1454,
      "看": 1455,
      "真": 1456,
      "眷": 1457,
      "眾": 1458,
      "瞿": 1459,
      "短": 1460,
      "石": 1461,
      "砍": 1462,
      "磨": 1463,
      "社": 1464,
      "祁": 1465,
      "祖": 1466,
      "祝": 1467,
      "神": 1468,
      "祥": 1469,
      "福": 1470,
      "禦": 1471,
      "禪": 1472,
      "禮": 1473,
      "秀": 1474,
      "秋": 1475,
      "秘": 1476,
      "移": 1477,
      "稅": 1478,
      "稠": 1479,
      "稱": 1480,
      "稳": 1481,
      "穆": 1482,
      "空": 1483,
      "立": 1484,
      "竟": 1485,
      "竺": 1486,
      "笃": 1487,
      "符": 1488,
      "等": 1489,
      "策": 1490,
      "管": 1491,
      "節": 1492,
      "範": 1493,
      "築": 1494,
      "簡": 1495,
      "簫": 1496,
      "簿": 1497,
      "系": 1498,
      "紀": 1499,
      "約": 1500,
      "納": 1501,
      "素": 1502,
      "細": 1503,
      "結": 1504,
      "絡": 1505,
      "給": 1506,
      "統": 1507,
      "經": 1508,
      "維": 1509,
      "綱": 1510,
      "緣": 1511,
      "緩": 1512,
      "縣": 1513,
      "總": 1514,
      "繁": 1515,
      "織": 1516,
      "繼": 1517,
      "續": 1518,
      "绥": 1519,
      "置": 1520,
      "羅": 1521,
      "美": 1522,
      "義": 1523,
      "習": 1524,
      "耀": 1525,
      "老": 1526,
      "考": 1527,
      "者": 1528,
      "耆": 1529,
      "而": 1530,
      "耕": 1531,
      "耶": 1532,
      "聃": 1533,
      "聚": 1534,
      "聞": 1535,
      "聲": 1536,
      "胡": 1537,
      "能": 1538,
      "膺": 1539,
      "臣": 1540,
      "臨": 1541,
      "自": 1542,
      "至": 1543,
      "臻": 1544,
      "與": 1545,
      "興": 1546,
      "舊": 1547,
      "般": 1548,
      "花": 1549,
      "芹": 1550,
      "苗": 1551,
      "若": 1552,
      "英": 1553,
      "苴": 1554,
      "范": 1555,
      "荀": 1556,
      "草": 1557,
      "荊": 1558,
      "荒": 1559,
      "莊": 1560,
      "莲": 1561,
      "菩": 1562,
      "華": 1563,
      "菲": 1564,
      "萬": 1565,
      "葉": 1566,
      "著": 1567,
      "葛": 1568,
      "蒙": 1569,
      "蒞": 1570,
      "蒲": 1571,
      "蓝": 1572,
      "蓮": 1573,
      "蔓": 1574,
      "蕃": 1575,
      "蕭": 1576,
      "薄": 1577,
      "薩": 1578,
      "藍": 1579,
      "藏": 1580,
      "藤": 1581,
      "蘇": 1582,
      "處": 1583,
      "虜": 1584,
      "虞": 1585,
      "蜀": 1586,
      "蜜": 1587,
      "螺": 1588,
      "蠟": 1589,
      "蠻": 1590,
      "行": 1591,
      "衛": 1592,
      "表": 1593,
      "被": 1594,
      "裝": 1595,
      "裡": 1596,
      "褒": 1597,
      "西": 1598,
      "見": 1599,
      "親": 1600,
      "覲": 1601,
      "観": 1602,
      "覺": 1603,
      "觀": 1604,
      "角": 1605,
      "解": 1606,
      "記": 1607,
      "設": 1608,
      "許": 1609,
      "詐": 1610,
      "詰": 1611,
      "該": 1612,
      "詳": 1613,
      "認": 1614,
      "誠": 1615,
      "誤": 1616,
      "說": 1617,
      "課": 1618,
      "論": 1619,
      "諱": 1620,
      "諸": 1621,
      "謀": 1622,
      "謂": 1623,
      "謝": 1624,
      "譜": 1625,
      "警": 1626,
      "議": 1627,
      "護": 1628,
      "變": 1629,
      "讓": 1630,
      "讖": 1631,
      "话": 1632,
      "语": 1633,
      "谶": 1634,
      "豐": 1635,
      "貉": 1636,
      "貌": 1637,
      "財": 1638,
      "買": 1639,
      "賓": 1640,
      "賜": 1641,
      "賦": 1642,
      "質": 1643,
      "賭": 1644,
      "贈": 1645,
      "贡": 1646,
      "走": 1647,
      "起": 1648,
      "越": 1649,
      "趙": 1650,
      "足": 1651,
      "趾": 1652,
      "跋": 1653,
      "身": 1654,
      "軍": 1655,
      "載": 1656,
      "輪": 1657,
      "轄": 1658,
      "辖": 1659,
      "農": 1660,
      "边": 1661,
      "辽": 1662,
      "近": 1663,
      "返": 1664,
      "进": 1665,
      "迦": 1666,
      "迪": 1667,
      "迴": 1668,
      "逃": 1669,
      "這": 1670,
      "通": 1671,
      "連": 1672,
      "進": 1673,
      "遂": 1674,
      "遇": 1675,
      "遊": 1676,
      "運": 1677,
      "過": 1678,
      "道": 1679,
      "達": 1680,
      "遭": 1681,
      "避": 1682,
      "邑": 1683,
      "那": 1684,
      "邪": 1685,
      "郎": 1686,
      "郑": 1687,
      "郡": 1688,
      "郤": 1689,
      "部": 1690,
      "都": 1691,
      "鄚": 1692,
      "鄭": 1693,
      "鄰": 1694,
      "釋": 1695,
      "重": 1696,
      "野": 1697,
      "金": 1698,
      "銖": 1699,
      "銜": 1700,
      "錄": 1701,
      "錫": 1702,
      "鎮": 1703,
      "鏤": 1704,
      "鐸": 1705,
      "鑑": 1706,
      "鑿": 1707,
      "長": 1708,
      "門": 1709,
      "開": 1710,
      "閏": 1711,
      "間": 1712,
      "閣": 1713,
      "闍": 1714,
      "關": 1715,
      "间": 1716,
      "阁": 1717,
      "阮": 1718,
      "防": 1719,
      "阳": 1720,
      "阿": 1721,
      "陀": 1722,
      "陁": 1723,
      "附": 1724,
      "除": 1725,
      "陳": 1726,
      "陶": 1727,
      "陸": 1728,
      "陽": 1729,
      "隆": 1730,
      "隊": 1731,
      "隋": 1732,
      "階": 1733,
      "随": 1734,
      "際": 1735,
      "隨": 1736,
      "隴": 1737,
      "雄": 1738,
      "集": 1739,
      "雒": 1740,
      "難": 1741,
      "雲": 1742,
      "靈": 1743,
      "静": 1744,
      "非": 1745,
      "面": 1746,
      "鞑": 1747,
      "韃": 1748,
      "韓": 1749,
      "音": 1750,
      "項": 1751,
      "順": 1752,
      "頒": 1753,
      "領": 1754,
      "頭": 1755,
      "頵": 1756,
      "顏": 1757,
      "顧": 1758,
      "顯": 1759,
      "顺": 1760,
      "顿": 1761,
      "風": 1762,
      "风": 1763,
      "餘": 1764,
      "館": 1765,
      "首": 1766,
      "馬": 1767,
      "駕": 1768,
      "駱": 1769,
      "騎": 1770,
      "驃": 1771,
      "驤": 1772,
      "體": 1773,
      "高": 1774,
      "髡": 1775,
      "魂": 1776,
      "魄": 1777,
      "魏": 1778,
      "鵲": 1779,
      "鹅": 1780,
      "麼": 1781,
      "黃": 1782,
      "黄": 1783,
      "黒": 1784,
      "點": 1785,
      "鼓": 1786,
      "齊": 1787,
      "齡": 1788,
      "龍": 1789,
      "龙": 1790,
      "경": 1791,
      "구": 1792,
      "국": 1793,
      "군": 1794,
      "김": 1795,
      "남": 1796,
      "네": 1797,
      "년": 1798,
      "는": 1799,
      "단": 1800,
      "대": 1801,
      "도": 1802,
      "동": 1803,
      "라": 1804,
      "력": 1805,
      "례": 1806,
      "루": 1807,
      "르": 1808,
      "만": 1809,
      "몬": 1810,
      "민": 1811,
      "방": 1812,
      "벌": 1813,
      "별": 1814,
      "봉": 1815,
      "삼": 1816,
      "상": 1817,
      "서": 1818,
      "선": 1819,
      "성": 1820,
      "소": 1821,
      "시": 1822,
      "신": 1823,
      "애": 1824,
      "양": 1825,
      "어": 1826,
      "연": 1827,
      "오": 1828,
      "울": 1829,
      "위": 1830,
      "자": 1831,
      "쟁": 1832,
      "전": 1833,
      "정": 1834,
      "제": 1835,
      "조": 1836,
      "주": 1837,
      "지": 1838,
      "쩔": 1839,
      "치": 1840,
      "친": 1841,
      "타": 1842,
      "탄": 1843,
      "특": 1844,
      "하": 1845,
      "한": 1846,
      "현": 1847,
      "협": 1848,
      "호": 1849,
      "희": 1850,
      "": 1851,
      "": 1852,
      "": 1853,
      "": 1854,
      "": 1855,
      "": 1856,
      "": 1857,
      "": 1858,
      "": 1859,
      "": 1860,
      "": 1861,
      "": 1862,
      "": 1863,
      "﻿": 1864,
      "（": 1865,
      "）": 1866,
      "，": 1867,
      "：": 1868,
      "･": 1869,
      "￥": 1870,
      "្រ": 1871,
      "ាន": 1872,
      "្ន": 1873,
      "ជា": 1874,
      "្ត": 1875,
      "ព្រ": 1876,
      "ាំ": 1877,
      "ារ": 1878,
      "ប្រ": 1879,
      "មាន": 1880,
      "ោះ": 1881,
      "ក្": 1882,
      "ាយ": 1883,
      "ព្រះ": 1884,
      "្ល": 1885,
      "ាំង": 1886,
      "ស់": 1887,
      "បាន": 1888,
      "ុង": 1889,
      "ត្រ": 1890,
      "ដែ": 1891,
      "ាល": 1892,
      "ម្": 1893,
      "្វ": 1894,
      "ប់": 1895,
      "ិន": 1896,
      "្យ": 1897,
      "ូវ": 1898,
      "េះ": 1899,
      "ង្": 1900,
      "និ": 1901,
      "ថា": 1902,
      "ក្ន": 1903,
      "ក្នុង": 1904,
      "ការ": 1905,
      "ដែល": 1906,
      "ើយ": 1907,
      "ាង": 1908,
      "ទាំង": 1909,
      "ោយ": 1910,
      "នោះ": 1911,
      "ត្ត": 1912,
      "ស្": 1913,
      "ទៅ": 1914,
      "មិន": 1915,
      "នេះ": 1916,
      "ាក": 1917,
      "ឹង": 1918,
      "ហើយ": 1919,
      "នៅ": 1920,
      "ក្ខ": 1921,
      "េច": 1922,
      "ដោយ": 1923,
      "ាស": 1924,
      "ាម": 1925,
      "ាប់": 1926,
      "និង": 1927,
      "ក្រ": 1928,
      "ង់": 1929,
      "្ម": 1930,
      "ាត": 1931,
      "រប": 1932,
      "្នក": 1933,
      "អ្នក": 1934,
      "ល់": 1935,
      "ក៏": 1936,
      "ង្គ": 1937,
      "ភិ": 1938,
      "ពី": 1939,
      "របស់": 1940,
      "បុ": 1941,
      "្ញ": 1942,
      "វិ": 1943,
      "ន្": 1944,
      "ុំ": 1945,
      "ទី": 1946,
      "ក្ខុ": 1947,
      "ួយ": 1948,
      "ភិក្ខុ": 1949,
      "នូវ": 1950,
      "សម": 1951,
      "ូច": 1952,
      "ឲ្យ": 1953,
      "ើង": 1954,
      "ទេ": 1955,
      "រា": 1956,
      "ិត": 1957,
      "ភា": 1958,
      "ស្រ": 1959,
      "ណា": 1960,
      "ាក់": 1961,
      "តែ": 1962,
      "ខ្ល": 1963,
      "ឡាយ": 1964,
      "្តី": 1965,
      "ទាំងឡាយ": 1966,
      "ដូច": 1967,
      "្ប": 1968,
      "មួយ": 1969,
      "គ្រ": 1970,
      "នឹង": 1971,
      "ម្ន": 1972,
      "ទ្រ": 1973,
      "ក្តី": 1974,
      "មក": 1975,
      "័យ": 1976,
      "ូល": 1977,
      "អា": 1978,
      "នៃ": 1979,
      "ពួ": 1980,
      "ត្រូវ": 1981,
      "ោក": 1982,
      "ធ្វ": 1983,
      "ធ្វើ": 1984,
      "ដល់": 1985,
      "គ្": 1986,
      "អង្គ": 1987,
      "យ៉": 1988,
      "សេច": 1989,
      "ដើ": 1990,
      "ើន": 1991,
      "ាស់": 1992,
      "ួន": 1993,
      "តិ": 1994,
      "ចំ": 1995,
      "ទ្": 1996,
      "សំ": 1997,
      "ពួក": 1998,
      "ាន់": 1999,
      "ម្នាល": 2000,
      "យ៉ាង": 2001,
      "ដ៏": 2002,
      "ម្ម": 2003,
      "th": 2004,
      "ែង": 2005,
      "គ្គ": 2006,
      "in": 2007,
      "្រើន": 2008,
      "ទ្ធ": 2009,
      "ផ្": 2010,
      "លោក": 2011,
      "ុះ": 2012,
      "រិ": 2013,
      "នា": 2014,
      "an": 2015,
      "សា": 2016,
      "្ច": 2017,
      "ាត់": 2018,
      "សេចក្តី": 2019,
      "គឺ": 2020,
      "ម្ប": 2021,
      "ណ្": 2022,
      "ើត": 2023,
      "ិត្ត": 2024,
      "ស្ស": 2025,
      "ម៌": 2026,
      "ជន": 2027,
      "ដ្": 2028,
      "ុក": 2029,
      "ធម៌": 2030,
      "កើត": 2031,
      "ពិ": 2032,
      "កាល": 2033,
      "ដ្ឋ": 2034,
      "គេ": 2035,
      "សេ": 2036,
      "នុ": 2037,
      "er": 2038,
      "េញ": 2039,
      "ចិត្ត": 2040,
      "រាជ": 2041,
      "ៀត": 2042,
      "ឹក": 2043,
      "កំ": 2044,
      "្នា": 2045,
      "ែក": 2046,
      "លើ": 2047,
      "ទ្រង់": 2048,
      "ខាង": 2049,
      "ន្ត": 2050,
      "សុ": 2051,
      "ន្ទ": 2052,
      "ខ្ញ": 2053,
      "ខ្ញុំ": 2054,
      "គ្គល": 2055,
      "ខ្លួន": 2056,
      "ួរ": 2057,
      "on": 2058,
      "បុគ្គល": 2059,
      "ាប": 2060,
      "េត": 2061,
      "ព្រះអង្គ": 2062,
      "តាម": 2063,
      "ឡើង": 2064,
      "ញ្ញ": 2065,
      "ម្បី": 2066,
      "អំ": 2067,
      "ឆ្ន": 2068,
      "ភាព": 2069,
      "ដី": 2070,
      "ត់": 2071,
      "ូរ": 2072,
      "ត្តិ": 2073,
      "ើញ": 2074,
      "មុ": 2075,
      "the": 2076,
      "បើ": 2077,
      "ផង": 2078,
      "ប៉": 2079,
      "ត្": 2080,
      "ដើម្បី": 2081,
      "ឯង": 2082,
      "ទៀត": 2083,
      "ឃើញ": 2084,
      "ពុ": 2085,
      "ណ៍": 2086,
      "សិ": 2087,
      "ដឹង": 2088,
      "ច្ច": 2089,
      "គ្នា": 2090,
      "ាទ": 2091,
      "re": 2092,
      "ចូល": 2093,
      "ភាគ": 2094,
      "ច្រើន": 2095,
      "ប្ប": 2096,
      "en": 2097,
      "ពេ": 2098,
      "អស់": 2099,
      "ឆ្នាំ": 2100,
      "ព្រោះ": 2101,
      "ុស": 2102,
      "ួល": 2103,
      "at": 2104,
      "ប្រក": 2105,
      "ោល": 2106,
      "្ង": 2107,
      "ពា": 2108,
      "សង្": 2109,
      "េតុ": 2110,
      "ូន": 2111,
      "ហេតុ": 2112,
      "ែន": 2113,
      "ដំ": 2114,
      "ហា": 2115,
      "ាល់": 2116,
      "គួរ": 2117,
      "យក": 2118,
      "ហ្ម": 2119,
      "ចម": 2120,
      "al": 2121,
      "នៅក្នុង": 2122,
      "ូម": 2123,
      "ទេស": 2124,
      "or": 2125,
      "is": 2126,
      "es": 2127,
      "ើរ": 2128,
      "ូប": 2129,
      "ដូច្ន": 2130,
      "ក់": 2131,
      "ar": 2132,
      "សាស": 2133,
      "សត": 2134,
      "ន្ល": 2135,
      "ព្វ": 2136,
      "ក្យ": 2137,
      "ច្ប": 2138,
      "ចេញ": 2139,
      "បរិ": 2140,
      "បំ": 2141,
      "ាច": 2142,
      "ស្ត": 2143,
      "ឿង": 2144,
      "ឈ្ម": 2145,
      "កម្ម": 2146,
      "ed": 2147,
      "ពេល": 2148,
      "កាន់": 2149,
      "ធិ": 2150,
      "ទ័": 2151,
      "យើង": 2152,
      "ពាក្យ": 2153,
      "រួ": 2154,
      "រស": 2155,
      "ជ្": 2156,
      "ជាតិ": 2157,
      "យោ": 2158,
      "ឈ្មោះ": 2159,
      "ចម្រើន": 2160,
      "ទិ": 2161,
      "ទុ": 2162,
      "ដេច": 2163,
      "ប៉ុ": 2164,
      "រម": 2165,
      "រី": 2166,
      "គត": 2167,
      "បង្": 2168,
      "ព្យ": 2169,
      "វិញ": 2170,
      "្អ": 2171,
      "ជ្រ": 2172,
      "និយ": 2173,
      "ទ័ព": 2174,
      "វា": 2175,
      "and": 2176,
      "បញ": 2177,
      "ែរ": 2178,
      "សារ": 2179,
      "នាំ": 2180,
      "ត្ថ": 2181,
      "តា": 2182,
      "ញ្ញា": 2183,
      "ករ": 2184,
      "រូប": 2185,
      "០០": 2186,
      "នាង": 2187,
      "ចុះ": 2188,
      "សត្វ": 2189,
      "ព្រះភាគ": 2190,
      "កិ": 2191,
      "ទឹក": 2192,
      "ពុទ្ធ": 2193,
      "ខ្លះ": 2194,
      "មនុ": 2195,
      "សម្": 2196,
      "រក": 2197,
      "លុះ": 2198,
      "ពិត្រ": 2199,
      "សម្រ": 2200,
      "មេ": 2201,
      "ចៅ": 2202,
      "មនុស្ស": 2203,
      "of": 2204,
      "ដែរ": 2205,
      "as": 2206,
      "ខ្ម": 2207,
      "ោម": 2208,
      "បពិត្រ": 2209,
      "ថ្ង": 2210,
      "ឧប": 2211,
      "ណៈ": 2212,
      "ទទ": 2213,
      "អំពី": 2214,
      "ថ្ងៃ": 2215,
      "ណ្ឌ": 2216,
      "អញ": 2217,
      "ើប": 2218,
      "ដើម": 2219,
      "ឡើយ": 2220,
      "ផ្ល": 2221,
      "អាច": 2222,
      "ខ្": 2223,
      "ពីរ": 2224,
      "it": 2225,
      "វេ": 2226,
      "ន្ធ": 2227,
      "ំន": 2228,
      "ប្រកប": 2229,
      "ត្រូវបាន": 2230,
      "ប្រទេស": 2231,
      "ុត": 2232,
      "ព្រះប": 2233,
      "ក្ស": 2234,
      "ទទួល": 2235,
      "ាញ": 2236,
      "និយាយ": 2237,
      "្លាប់": 2238,
      "ou": 2239,
      "៊ី": 2240,
      "ជី": 2241,
      "ៀង": 2242,
      "រដ្ឋ": 2243,
      "េក": 2244,
      "ម៉": 2245,
      "ic": 2246,
      "គោ": 2247,
      "ចំណ": 2248,
      "ដូច្នេះ": 2249,
      "តាំង": 2250,
      "្វី": 2251,
      "ម្រ": 2252,
      "ព្រឹ": 2253,
      "អាស": 2254,
      "រិយ": 2255,
      "បូ": 2256,
      "ថាគត": 2257,
      "លា": 2258,
      "ដិ": 2259,
      "ing": 2260,
      "ន់": 2261,
      "ទើប": 2262,
      "ចាក": 2263,
      "សី": 2264,
      "មា": 2265,
      "ក្សា": 2266,
      "ទុក": 2267,
      "កំព": 2268,
      "ល្អ": 2269,
      "គ្រប់": 2270,
      "អាត": 2271,
      "ពោះ": 2272,
      "ច្បាស់": 2273,
      "បន្ទ": 2274,
      "to": 2275,
      "តែង": 2276,
      "ទៃ": 2277,
      "ធំ": 2278,
      "ផល": 2279,
      "ម្ត": 2280,
      "ពោល": 2281,
      "កុ": 2282,
      "ដូចជា": 2283,
      "el": 2284,
      "ព្រា": 2285,
      "មុខ": 2286,
      "ឱ្យ": 2287,
      "កាយ": 2288,
      "មើ": 2289,
      "ូត": 2290,
      "ប្រកបដោយ": 2291,
      "មែន": 2292,
      "ត្រាស់": 2293,
      "ខ្មែរ": 2294,
      "គាល់": 2295,
      "ភ្ល": 2296,
      "ណ្ត": 2297,
      "េង": 2298,
      "ជាមួយ": 2299,
      "ប្រា": 2300,
      "ោស": 2301,
      "សុខ": 2302,
      "បត្តិ": 2303,
      "ព្រាហ្ម": 2304,
      "ៀប": 2305,
      "ិក": 2306,
      "ប្រព្រឹ": 2307,
      "ក្រុង": 2308,
      "ហៅ": 2309,
      "តី": 2310,
      "ស្រុក": 2311,
      "ស្រី": 2312,
      "ធម្ម": 2313,
      "បុរស": 2314,
      "ក្ដី": 2315,
      "ចំពោះ": 2316,
      "ទាំងនោះ": 2317,
      "លំ": 2318,
      "បង់": 2319,
      "ប្រស": 2320,
      "ចាស់": 2321,
      "ion": 2322,
      "ភ្ន": 2323,
      "លើក": 2324,
      "ឹម": 2325,
      "ទេវ": 2326,
      "ព្រាហ្មណ៍": 2327,
      "តំ": 2328,
      "ក្រោយ": 2329,
      "ពល": 2330,
      "រមែង": 2331,
      "អ្វី": 2332,
      "អាយ": 2333,
      "មហា": 2334,
      "កង": 2335,
      "ទុក្ខ": 2336,
      "il": 2337,
      "ប្រព្រឹត្ត": 2338,
      "ចាប់": 2339,
      "ិច": 2340,
      "អរ": 2341,
      "ដំណ": 2342,
      "េរ": 2343,
      "ពេញ": 2344,
      "ហារ": 2345,
      "នាក់": 2346,
      "កើតឡើង": 2347,
      "្មា": 2348,
      "ពញ": 2349,
      "ៀន": 2350,
      "ជាង": 2351,
      "កម្": 2352,
      "ro": 2353,
      "សម័យ": 2354,
      "អាត្មា": 2355,
      "នី": 2356,
      "ចារ": 2357,
      "កូន": 2358,
      "្វាយ": 2359,
      "សាសនា": 2360,
      "អាន": 2361,
      "ប្រើ": 2362,
      "អាយុ": 2363,
      "បាល": 2364,
      "បញ្": 2365,
      "ដទៃ": 2366,
      "ស្ថ": 2367,
      "st": 2368,
      "១៩": 2369,
      "ទា": 2370,
      "ស្ដេច": 2371,
      "េស": 2372,
      "ព័": 2373,
      "ភូម": 2374,
      "អនុ": 2375,
      "ប្រជា": 2376,
      "ុយ": 2377,
      "សង្ឃ": 2378,
      "រាជា": 2379,
      "ពិត": 2380,
      "ខែ": 2381,
      "រំ": 2382,
      "តើ": 2383,
      "ផ្លូវ": 2384,
      "ទាំងអស់": 2385,
      "វត្ត": 2386,
      "ិយ": 2387,
      "ណាម": 2388,
      "ព្រះពុទ្ធ": 2389,
      "ទាន": 2390,
      "សូម": 2391,
      "បី": 2392,
      "ផុត": 2393,
      "រួច": 2394,
      "ាញ់": 2395,
      "ent": 2396,
      "ោត": 2397,
      "រឿង": 2398,
      "ផ្ទ": 2399,
      "ac": 2400,
      "អោយ": 2401,
      "បេ": 2402,
      "ប្រាស": 2403,
      "ទូល": 2404,
      "កំណ": 2405,
      "ដែង": 2406,
      "ទ្ធិ": 2407,
      "ម្តេច": 2408,
      "គរ": 2409,
      "ពញា": 2410,
      "រល": 2411,
      "ថ្ម": 2412,
      "បច្ច": 2413,
      "មើល": 2414,
      "កា": 2415,
      "យោជន": 2416,
      "le": 2417,
      "រាប់": 2418,
      "គុ": 2419,
      "ចំន": 2420,
      "ជើង": 2421,
      "គាត់": 2422,
      "កន្ល": 2423,
      "កិច្ច": 2424,
      "យល់": 2425,
      "ភូមិ": 2426,
      "ប្បី": 2427,
      "សង្គ": 2428,
      "គប្បី": 2429,
      "ុម": 2430,
      "ដូចម្តេច": 2431,
      "វិន": 2432,
      "ទ្យ": 2433,
      "មុន": 2434,
      "ូង": 2435,
      "បទ": 2436,
      "ាច់": 2437,
      "វិត": 2438,
      "្រី": 2439,
      "ដាក់": 2440,
      "ណាស់": 2441,
      "ណ៌": 2442,
      "ភ្នំ": 2443,
      "ព្រះរាជ": 2444,
      "ជាច្រើន": 2445,
      "អាវ": 2446,
      "កម្ពុ": 2447,
      "ខេ": 2448,
      "ម្ល": 2449,
      "ព្រម": 2450,
      "្ឆ": 2451,
      "រួម": 2452,
      "សូ": 2453,
      "សេង": 2454,
      "ម្ចាស់": 2455,
      "ោង": 2456,
      "លះ": 2457,
      "បង្គ": 2458,
      "ដាប់": 2459,
      "ផ្សេង": 2460,
      "យោជន៍": 2461,
      "សេចក្ដី": 2462,
      "ព្រះបាទ": 2463,
      "កម្ពុជា": 2464,
      "គ្រឿង": 2465,
      "នៈ": 2466,
      "ៀម": 2467,
      "ព្រៃ": 2468,
      "ណ្ណ": 2469,
      "បិ": 2470,
      "ទូ": 2471,
      "បុត្រ": 2472,
      "សម្ប": 2473,
      "am": 2474,
      "ជ្ញ": 2475,
      "សម្រាប់": 2476,
      "ទៅកាន់": 2477,
      "om": 2478,
      "សំដែង": 2479,
      "វត្ថ": 2480,
      "ស្លាប់": 2481,
      "បារ": 2482,
      "ណាច": 2483,
      "បញ្ច": 2484,
      "ជាប់": 2485,
      "ធ្វើឲ្យ": 2486,
      "ev": 2487,
      "ពុំ": 2488,
      "ថ្ល": 2489,
      "អាក": 2490,
      "គិត": 2491,
      "ក្ល": 2492,
      "ចំនួន": 2493,
      "ព្រហ្ម": 2494,
      "ឆ្ល": 2495,
      "វៈ": 2496,
      "ួស": 2497,
      "សួរ": 2498,
      "ធី": 2499,
      "ោគ": 2500,
      "សព្វ": 2501,
      "ជ្ឈ": 2502,
      "ប្រសើរ": 2503,
      "មហ": 2504,
      "បង": 2505,
      "ch": 2506,
      "ន៍": 2507,
      "អាត្មាអញ": 2508,
      "មារ": 2509,
      "ក្រុម": 2510,
      "បាយ": 2511,
      "កែ": 2512,
      "គុណ": 2513,
      "សរ": 2514,
      "ភព": 2515,
      "ប្រយោជន៍": 2516,
      "ចូរ": 2517,
      "៉ា": 2518,
      "ធាន": 2519,
      "គឺជា": 2520,
      "ភាស": 2521,
      "រយ": 2522,
      "ស្ង": 2523,
      "ស្វ": 2524,
      "ចាំ": 2525,
      "ខេត្ត": 2526,
      "គង់": 2527,
      "ផ្ត": 2528,
      "ន្ន": 2529,
      "៎ះ": 2530,
      "បា": 2531,
      "ទំន": 2532,
      "ទោស": 2533,
      "ec": 2534,
      "he": 2535,
      "កុំ": 2536,
      "នុ៎ះ": 2537,
      "កាលបើ": 2538,
      "ដំណើរ": 2539,
      "ច្រ": 2540,
      "នគរ": 2541,
      "កាត់": 2542,
      "ជំ": 2543,
      "ប្រការ": 2544,
      "ជ័យ": 2545,
      "រហ": 2546,
      "ចាត់": 2547,
      "ជាក់": 2548,
      "ណ្ដ": 2549,
      "ប្រព": 2550,
      "កំពុង": 2551,
      "អាស្រ": 2552,
      "ជំន": 2553,
      "ថ្វាយ": 2554,
      "ត្រេក": 2555,
      "ជុំ": 2556,
      "ol": 2557,
      "ទំ": 2558,
      "បំផុត": 2559,
      "សាស្ត": 2560,
      "ពើ": 2561,
      "ស៊ី": 2562,
      "ម្នាក់": 2563,
      "ជីវិត": 2564,
      "សេស": 2565,
      "ទាន់": 2566,
      "កាម": 2567,
      "ស្ទ": 2568,
      "លះបង់": 2569,
      "មូល": 2570,
      "បន្ត": 2571,
      "នាម": 2572,
      "ក្រាប": 2573,
      "de": 2574,
      "ស្ល": 2575,
      "កងទ័ព": 2576,
      "កុស": 2577,
      "ដៅ": 2578,
      "us": 2579,
      "ន្តែ": 2580,
      "គ្មាន": 2581,
      "ប៉ុន្តែ": 2582,
      "សម្ដេច": 2583,
      "ាជ": 2584,
      "ទេវតា": 2585,
      "សាវ": 2586,
      "អារ": 2587,
      "រៀប": 2588,
      "ហ៊": 2589,
      "ល្ប": 2590,
      "មាណ": 2591,
      "អាស្រ័យ": 2592,
      "ដៃ": 2593,
      "ត្រេកអរ": 2594,
      "ដូច្នោះ": 2595,
      "ង្ស": 2596,
      "ង្វ": 2597,
      "អាវុស": 2598,
      "oc": 2599,
      "ចូលទៅ": 2600,
      "អាបត្តិ": 2601,
      "ស្ន": 2602,
      "ដើរ": 2603,
      "ត្រង់": 2604,
      "អាវុសោ": 2605,
      "ជិត": 2606,
      "សញ្ញា": 2607,
      "វិទ្យ": 2608,
      "ពោ": 2609,
      "សម្រេច": 2610,
      "បែក": 2611,
      "ក្ក": 2612,
      "មន្ត": 2613,
      "ចំណែក": 2614,
      "ប្រាសាទ": 2615,
      "ទិស": 2616,
      "ស្រឡ": 2617,
      "យុ": 2618,
      "កុសល": 2619,
      "ថ្មី": 2620,
      "ក្រោម": 2621,
      "ថ្នា": 2622,
      "ផ្ទះ": 2623,
      "ណី": 2624,
      "ក្សត្រ": 2625,
      "ឯក": 2626,
      "ាតុ": 2627,
      "វរ": 2628,
      "មោ": 2629,
      "១០": 2630,
      "ិញ": 2631,
      "ប្រាជ្ញ": 2632,
      "ប្រាក": 2633,
      "ប្រាថ្នា": 2634,
      "សីល": 2635,
      "ដង": 2636,
      "ប្រាកដ": 2637,
      "for": 2638,
      "គម": 2639,
      "im": 2640,
      "ព្យាយ": 2641,
      "ig": 2642,
      "បង្គំ": 2643,
      "ព្យាយាម": 2644,
      "សម្ម": 2645,
      "ធ្ល": 2646,
      "ផ្ន": 2647,
      "យ្យ": 2648,
      "ពស់": 2649,
      "ាធិ": 2650,
      "គ្រប់គ្រ": 2651,
      "បន់": 2652,
      "ad": 2653,
      "ប្រាប់": 2654,
      "សមណ": 2655,
      "ប្": 2656,
      "បណ្ត": 2657,
      "et": 2658,
      "នាយ": 2659,
      "ដ្ឋាន": 2660,
      "ow": 2661,
      "សហ": 2662,
      "ឈើ": 2663,
      "ag": 2664,
      "ាវ": 2665,
      "បតី": 2666,
      "ស៊": 2667,
      "ែល": 2668,
      "អានន្ទ": 2669,
      "លែង": 2670,
      "វត្ថុ": 2671,
      "បោះ": 2672,
      "ចង់": 2673,
      "ឥត": 2674,
      "ៀវ": 2675,
      "ច្ឆ": 2676,
      "ul": 2677,
      "ប្រព្រឹត្តទៅ": 2678,
      "អភិ": 2679,
      "បរ": 2680,
      "រហូត": 2681,
      "ខ្លាំង": 2682,
      "កំណត់": 2683,
      "ur": 2684,
      "ក្រៅ": 2685,
      "ir": 2686,
      "សុទ្ធ": 2687,
      "ថ្ន": 2688,
      "ងារ": 2689,
      "វាយ": 2690,
      "ត្ប": 2691,
      "រស់": 2692,
      "ខ្លួនឯង": 2693,
      "ៀរ": 2694,
      "គោត": 2695,
      "ស្គាល់": 2696,
      "ប្រតិ": 2697,
      "ស្តេច": 2698,
      "រិយា": 2699,
      "តំបន់": 2700,
      "សាល": 2701,
      "ចិន": 2702,
      "ប៉ុណ្ណ": 2703,
      "ភាសា": 2704,
      "ប្រជាជន": 2705,
      "ជ្ជា": 2706,
      "បន្ទាប់": 2707,
      "គំ": 2708,
      "ដែន": 2709,
      "ស្ម": 2710,
      "សិក្សា": 2711,
      "un": 2712,
      "ទៅដល់": 2713,
      "ហាន": 2714,
      "ត្រឡ": 2715,
      "បដិ": 2716,
      "សំណ": 2717,
      "ចេះ": 2718,
      "សាយ": 2719,
      "ួត": 2720,
      "ខុស": 2721,
      "ly": 2722,
      "សូត្រ": 2723,
      "ុណា": 2724,
      "ញ្": 2725,
      "សាង": 2726,
      "រក្សា": 2727,
      "ជ្ជ": 2728,
      "ចក្រ": 2729,
      "ករុណា": 2730,
      "ណ្យ": 2731,
      "គ្រា": 2732,
      "វត្": 2733,
      "តូច": 2734,
      "អង្គុយ": 2735,
      "បង្កើត": 2736,
      "ែប": 2737,
      "អំពើ": 2738,
      "ន្មាន": 2739,
      "សង្គ្រ": 2740,
      "ត្រា": 2741,
      "វេទ": 2742,
      "បុណ្យ": 2743,
      "ation": 2744,
      "id": 2745,
      "បាត": 2746,
      "iv": 2747,
      "ុល": 2748,
      "ួង": 2749,
      "អំណាច": 2750,
      "គោតម": 2751,
      "បានជា": 2752,
      "ុប": 2753,
      "ចរ": 2754,
      "តេ": 2755,
      "ត្រឹម": 2756,
      "evel": 2757,
      "ចប់": 2758,
      "បន្ទាយ": 2759,
      "សង្ក": 2760,
      "ញ្ញាណ": 2761,
      "ទ្រព្យ": 2762,
      "ត្រឡប់": 2763,
      "ស្តាប់": 2764,
      "ព័ន្ធ": 2765,
      "ខ្ស": 2766,
      "ចុង": 2767,
      "វិជ្ជា": 2768,
      "ោរ": 2769,
      "លក្ខ": 2770,
      "កន្លែង": 2771,
      "រយៈ": 2772,
      "អរិយ": 2773,
      "ភោគ": 2774,
      "ួច": 2775,
      "ថ្លា": 2776,
      "ពិចារ": 2777,
      "បាត់": 2778,
      "ផែន": 2779,
      "ay": 2780,
      "យូរ": 2781,
      "be": 2782,
      "ជួយ": 2783,
      "ទស្ស": 2784,
      "គ្រប់គ្រង": 2785,
      "បុត្ត": 2786,
      "ter": 2787,
      "សេដ្ឋ": 2788,
      "សំគាល់": 2789,
      "សៀម": 2790,
      "em": 2791,
      "រ៉": 2792,
      "ត្រី": 2793,
      "ច្បាប់": 2794,
      "ពួកគេ": 2795,
      "ស្ដ": 2796,
      "លិច": 2797,
      "កញ": 2798,
      "ម្ង": 2799,
      "ប្រពៃ": 2800,
      "ើម": 2801,
      "ឃុំ": 2802,
      "ពិចារណា": 2803,
      "ព្រះរាជា": 2804,
      "os": 2805,
      "ុន": 2806,
      "ែម": 2807,
      "បែប": 2808,
      "ណាមួយ": 2809,
      "ce": 2810,
      "ដំរី": 2811,
      "វង្ស": 2812,
      "ចោល": 2813,
      "ទ្វ": 2814,
      "Level": 2815,
      "ុប្ប": 2816,
      "បន្": 2817,
      "ដ្ឋិ": 2818,
      "ភ្លើង": 2819,
      "ម្មណ៍": 2820,
      "ជាដើម": 2821,
      "are": 2822,
      "មាត": 2823,
      "ប្រមាណ": 2824,
      "ទោះ": 2825,
      "សង្គ្រាម": 2826,
      "មាស": 2827,
      "ខ្ពស់": 2828,
      "ប្រតិបត្តិ": 2829,
      "con": 2830,
      "ស្ថិត": 2831,
      "ិះ": 2832,
      "ហ្": 2833,
      "ស្ថាន": 2834,
      "បូណ៌": 2835,
      "ot": 2836,
      "តិច": 2837,
      "រាជ្យ": 2838,
      "ដឹក": 2839,
      "ព្": 2840,
      "ក្រហ": 2841,
      "លេស": 2842,
      "មកដល់": 2843,
      "wh": 2844,
      "សភា": 2845,
      "សង": 2846,
      "ស័យ": 2847,
      "ិតា": 2848,
      "ប្រហ": 2849,
      "ាល័យ": 2850,
      "ព្វាន": 2851,
      "វេទនា": 2852,
      "ួប": 2853,
      "ោធ": 2854,
      "ចំរ": 2855,
      "ពាក់": 2856,
      "ហើយក៏": 2857,
      "ផ្នែក": 2858,
      "ឿយ": 2859,
      "ត្បូង": 2860,
      "ដោះ": 2861,
      "បុរ": 2862,
      "ក្ត": 2863,
      "វេលា": 2864,
      "មិត្ត": 2865,
      "ជាមួយនឹង": 2866,
      "tr": 2867,
      "ខាន់": 2868,
      "បរិបូណ៌": 2869,
      "ចង្": 2870,
      "សំព": 2871,
      "កុមារ": 2872,
      "od": 2873,
      "ជូន": 2874,
      "លំដាប់": 2875,
      "បច្ចុប្ប": 2876,
      "ប្រវ": 2877,
      "បាក": 2878,
      "បច្ចុប្បន្ន": 2879,
      "អាក្រ": 2880,
      "ចី": 2881,
      "១៥": 2882,
      "ក្លាយ": 2883,
      "អាម": 2884,
      "ព្រះករុណា": 2885,
      "សំឡ": 2886,
      "ព្រះមហា": 2887,
      "រព": 2888,
      "ក្ប": 2889,
      "រុ": 2890,
      "ប៉ុណ្ណោះ": 2891,
      "រត់": 2892,
      "បូជា": 2893,
      "ាតិ": 2894,
      "អធិ": 2895,
      "ដំបូ": 2896,
      "ប្រែ": 2897,
      "១៨": 2898,
      "ut": 2899,
      "រលត់": 2900,
      "ដក": 2901,
      "វី": 2902,
      "នៅលើ": 2903,
      "ាជិក": 2904,
      "ហ្វ": 2905,
      "េទ": 2906,
      "បញ្ញា": 2907,
      "ទីនោះ": 2908,
      "មន": 2909,
      "គោរព": 2910,
      "ស័": 2911,
      "ស្មើ": 2912,
      "ពណ៌": 2913,
      "ab": 2914,
      "អាក្រក់": 2915,
      "កម្ល": 2916,
      "មិ": 2917,
      "សេនា": 2918,
      "ith": 2919,
      "The": 2920,
      "ទៅជា": 2921,
      "លី": 2922,
      "សភាព": 2923,
      "ធាតុ": 2924,
      "រវ": 2925,
      "សំខាន់": 2926,
      "ដោយសារ": 2927,
      "ពោធិ": 2928,
      "ers": 2929,
      "្ដ": 2930,
      "ទិដ្ឋិ": 2931,
      "វៀរ": 2932,
      "បារាំង": 2933,
      "ចំរើន": 2934,
      "ផ្សាយ": 2935,
      "ថយ": 2936,
      "តថាគត": 2937,
      "ទីក្រុង": 2938,
      "ឹត": 2939,
      "២០": 2940,
      "យ៉ាងណា": 2941,
      "ព្រះបរម": 2942,
      "ហ៍": 2943,
      "សរស": 2944,
      "um": 2945,
      "បក្ស": 2946,
      "ិត្យ": 2947,
      "សិទ្ធិ": 2948,
      "សំរាប់": 2949,
      "ជ្រះ": 2950,
      "was": 2951,
      "ព្រមទាំង": 2952,
      "វិន័យ": 2953,
      "ទៅក្នុង": 2954,
      "រាង": 2955,
      "កន្លង": 2956,
      "ពួង": 2957,
      "ឺន": 2958,
      "មគ្គ": 2959,
      "ដឹកនាំ": 2960,
      "ap": 2961,
      "ប្រាស់": 2962,
      "ការណ៍": 2963,
      "វៀត": 2964,
      "វិធី": 2965,
      "ឡូវ": 2966,
      "លេ": 2967,
      "ដំបូង": 2968,
      "ចែក": 2969,
      "មី": 2970,
      "មរ": 2971,
      "av": 2972,
      "កម្រ": 2973,
      "សមុ": 2974,
      "ឧកញ": 2975,
      "័ន": 2976,
      "តំណ": 2977,
      "ជនជាតិ": 2978,
      "ការងារ": 2979,
      "ប៉ុន្មាន": 2980,
      "ើស": 2981,
      "00": 2982,
      "ធ្លាប់": 2983,
      "វិញ្ញាណ": 2984,
      "រីករ": 2985,
      "ឥឡូវ": 2986,
      "កែវ": 2987,
      "អាហារ": 2988,
      "ធម្មតា": 2989,
      "ទាំងពួង": 2990,
      "</": 2991,
      "សាស្ត្រ": 2992,
      "ទ័យ": 2993,
      "ជ្ឈាន": 2994,
      "សូន": 2995,
      "19": 2996,
      "op": 2997,
      "រិះ": 2998,
      "ៀក": 2999,
      "ឧកញ៉ា": 3000,
      "តុ": 3001,
      "អគ្គ": 3002,
      "ប្រាជ្ញា": 3003,
      "មាត់": 3004,
      "ឋាន": 3005,
      "ឧត្ត": 3006,
      "doc": 3007,
      "ប្រកាន់": 3008,
      "គី": 3009,
      "អារម្មណ៍": 3010,
      "ផែនដី": 3011,
      "១២": 3012,
      "se": 3013,
      "ូក": 3014,
      "ឃ្ល": 3015,
      "រៀបចំ": 3016,
      "រីករាយ": 3017,
      "កម្លាំង": 3018,
      "ជាត": 3019,
      "ងាយ": 3020,
      "ន្ទ្រ": 3021,
      "ថ្នាក់": 3022,
      "ថែម": 3023,
      "បាប": 3024,
      "ជ្រះថ្លា": 3025,
      "pro": 3026,
      "សូន្យ": 3027,
      "that": 3028,
      "សិក្ខ": 3029,
      "បណ្ឌ": 3030,
      "ប្រុស": 3031,
      "កណ្ត": 3032,
      "with": 3033,
      "គោល": 3034,
      "ពុក": 3035,
      "ប្រជុំ": 3036,
      "ist": 3037,
      "ប្រើប្រាស់": 3038,
      "រំល": 3039,
      "សោយ": 3040,
      "កន": 3041,
      "លក្ខណៈ": 3042,
      "កំពង់": 3043,
      "ain": 3044,
      "គហ": 3045,
      "បច្ច័យ": 3046,
      "អរហ": 3047,
      "តាំងពី": 3048,
      "ភ័យ": 3049,
      "មកពី": 3050,
      "សាច": 3051,
      "ក្បាល": 3052,
      "សង្កត់": 3053,
      "សេចក្តីសុខ": 3054,
      "ស្រឡាញ់": 3055,
      "--": 3056,
      "សម្លាប់": 3057,
      "ឆ្ង": 3058,
      "ហាញ": 3059,
      "ov": 3060,
      "ហ្ន": 3061,
      "ន្តរ": 3062,
      "ទីបំផុត": 3063,
      "ណ្ដាល": 3064,
      "រហូតដល់": 3065,
      "ភេទ": 3066,
      "រាប": 3067,
      "មន្ត្រី": 3068,
      "វៀតណាម": 3069,
      "ជ្រាប": 3070,
      "គា": 3071,
      "បង្ហាញ": 3072,
      "កិលេស": 3073,
      "និត": 3074,
      "ប្រហែល": 3075,
      "ទាហាន": 3076,
      "ជួប": 3077,
      "ក្រោយមក": 3078,
      "សន្": 3079,
      "ចា": 3080,
      "res": 3081,
      "com": 3082,
      "២០០": 3083,
      "សទ្ធ": 3084,
      "កល់": 3085,
      "ប្រាក់": 3086,
      "ប្រវត្តិ": 3087,
      "បញ្ញ": 3088,
      "ភិបាល": 3089,
      "សាស្តា": 3090,
      "ៀល": 3091,
      "និព្វាន": 3092,
      "ទន្ល": 3093,
      "ចង": 3094,
      "ere": 3095,
      "កូល": 3096,
      "ពន្ល": 3097,
      "ខាងលិច": 3098,
      "យោបាយ": 3099,
      "ដាច់": 3100,
      "ស្វែង": 3101,
      "តប": 3102,
      "សារី": 3103,
      "ang": 3104,
      "តទៅ": 3105,
      "ទ្វារ": 3106,
      "__": 3107,
      "ន័យ": 3108,
      "oun": 3109,
      "្យល់": 3110,
      "សោះ": 3111,
      "នេ": 3112,
      "if": 3113,
      "by": 3114,
      "រៀន": 3115,
      "ករណ៍": 3116,
      "all": 3117,
      "ឡា": 3118,
      "នយោបាយ": 3119,
      "ខាងកើត": 3120,
      "សម្បត្តិ": 3121,
      "ជាន់": 3122,
      "ខាងជើង": 3123,
      "អត្ថ": 3124,
      "កិរិយា": 3125,
      "ការព": 3126,
      "ឆ្លង": 3127,
      "ខំ": 3128,
      "ពិសេស": 3129,
      "សរសើរ": 3130,
      "ោច": 3131,
      "សេះ": 3132,
      "ដេក": 3133,
      "ព្រះគោតម": 3134,
      "គៈ": 3135,
      "ឆ្នោត": 3136,
      "សង្ខ": 3137,
      "ធ្លាក់": 3138,
      "ខ្វ": 3139,
      "បិណ្ឌ": 3140,
      "បណ្ឌិត": 3141,
      "កាស": 3142,
      "ាភិបាល": 3143,
      "បង្អ": 3144,
      "លេង": 3145,
      "សាក": 3146,
      "ខាងត្បូង": 3147,
      "សាប": 3148,
      "ិល": 3149,
      "ណ្ហា": 3150,
      "មាំ": 3151,
      "ឋិត": 3152,
      "រេ": 3153,
      "បរិភោគ": 3154,
      "ឆ្លើយ": 3155,
      "កណ្តាល": 3156,
      "ថៃ": 3157,
      "ត្រកូល": 3158,
      "គណ": 3159,
      "បំណ": 3160,
      "គំនិត": 3161,
      "វិនាស": 3162,
      "ែត": 3163,
      "ថេរ": 3164,
      "su": 3165,
      "១៤": 3166,
      "ធារ": 3167,
      "ផងដែរ": 3168,
      "អ៊ី": 3169,
      "សមណៈ": 3170,
      "ស្ងប់": 3171,
      "ត្ដិ": 3172,
      "រៀង": 3173,
      "គ្រូ": 3174,
      "ិញ្ច": 3175,
      "ព្រះនាង": 3176,
      "រឿយ": 3177,
      "ថ្វាយបង្គំ": 3178,
      "នាំគ្នា": 3179,
      "ect": 3180,
      "បាំង": 3181,
      "ថ្ងៃទី": 3182,
      "គ៌": 3183,
      "រវាង": 3184,
      "១៦": 3185,
      "សំពត់": 3186,
      "ប្រកាស": 3187,
      "តណ្ហា": 3188,
      "ត្តា": 3189,
      "ប្បាយ": 3190,
      "ពូ": 3191,
      "នៅតែ": 3192,
      "ាចារ": 3193,
      "ទន្លេ": 3194,
      "ក្រហម": 3195,
      "អប់": 3196,
      "បរិសុទ្ធ": 3197,
      "នាគ": 3198,
      "ព្រះនាម": 3199,
      "វិហារ": 3200,
      "សមាធិ": 3201,
      "ចីវរ": 3202,
      "ឈ្ល": 3203,
      "តម្រ": 3204,
      "ព្រះសង្ឃ": 3205,
      "សង្គម": 3206,
      "រៈ": 3207,
      "ex": 3208,
      "ស្វែងរក": 3209,
      "ធ្វើជា": 3210,
      "ញ៉": 3211,
      "វត្ស": 3212,
      "សួ": 3213,
      "កាប់": 3214,
      "ឥឡូវនេះ": 3215,
      "ផ្ទៃ": 3216,
      "សមុទ្រ": 3217,
      "ពេក": 3218,
      "ត្រិះ": 3219,
      "ស្សា": 3220,
      "ប្ត": 3221,
      "រង": 3222,
      "ទាក់": 3223,
      "ាណ": 3224,
      "្ទ": 3225,
      "គ្រប": 3226,
      "ant": 3227,
      "ប្រធាន": 3228,
      "ទៀង": 3229,
      "រឺ": 3230,
      "ធ្យ": 3231,
      "igh": 3232,
      "ប្រាសចាក": 3233,
      "ូស": 3234,
      "សម្មាស": 3235,
      "ក្រាបបង្គំ": 3236,
      "ណាចក្រ": 3237,
      "រដ្ឋាភិបាល": 3238,
      "័ក": 3239,
      "ឥណ្ឌ": 3240,
      "សាច់": 3241,
      "សន្ត": 3242,
      "ជាធម៌": 3243,
      "ឿន": 3244,
      "មហាស": 3245,
      "ពិធី": 3246,
      "បាទ": 3247,
      "ហៈ": 3248,
      "ពន្ធ": 3249,
      "រាល់": 3250,
      "១៣": 3251,
      "ខណៈ": 3252,
      "ផ្កា": 3253,
      "សុំ": 3254,
      "កោ": 3255,
      "ន្ដ": 3256,
      "លេខ": 3257,
      "បម្រ": 3258,
      "បើក": 3259,
      "ត្រាស់ដឹង": 3260,
      "ឈរ": 3261,
      "est": 3262,
      "សូរ": 3263,
      "នែ": 3264,
      "អាមេ": 3265,
      "រម្ង": 3266,
      "សាម": 3267,
      "លក់": 3268,
      "ៀស": 3269,
      "០០០": 3270,
      "រម្ងាប់": 3271,
      "សំរ": 3272,
      "qu": 3273,
      "អន្តរ": 3274,
      "រាណ": 3275,
      "ចន្ទ": 3276,
      "In": 3277,
      "ស្ងាត់": 3278,
      "សាលា": 3279,
      "ak": 3280,
      "ឧបាស": 3281,
      "ហិ": 3282,
      "ទូក": 3283,
      "ក្រៃ": 3284,
      "សម្ល": 3285,
      "បង្ក": 3286,
      "ការធ្វើ": 3287,
      "ទំនង": 3288,
      "អ៊": 3289,
      "សត្រូវ": 3290,
      "សេរ": 3291,
      "ញាតិ": 3292,
      "សល់": 3293,
      "មេទ័ព": 3294,
      "សង្រ": 3295,
      "ការៈ": 3296,
      "ទាយ": 3297,
      "ill": 3298,
      "កោះ": 3299,
      "ប្រទ": 3300,
      "ម្ភ": 3301,
      "អាសវៈ": 3302,
      "ក្លាយជា": 3303,
      "អ្នកដទៃ": 3304,
      "ព្រះនិព្វាន": 3305,
      "អាកាស": 3306,
      "ឌ្": 3307,
      "ប្រឹ": 3308,
      "ភ្នែក": 3309,
      "សង្ខារ": 3310,
      "ម្ដេច": 3311,
      "អកុសល": 3312,
      "ace": 3313,
      "ឧត្តម": 3314,
      "ធានី": 3315,
      "្វា": 3316,
      "ចារ្យ": 3317,
      "គ្រាន់": 3318,
      "ត៌": 3319,
      "ក្រាបបង្គំទូល": 3320,
      "..": 3321,
      "មាតា": 3322,
      "ប្រាំ": 3323,
      "ាបទ": 3324,
      "សួគ៌": 3325,
      "Ev": 3326,
      "សតិ": 3327,
      "ចូលមក": 3328,
      "សាវ័ក": 3329,
      "ឆ្ងាយ": 3330,
      "ខ្ន": 3331,
      "Ch": 3332,
      "ដា": 3333,
      "ធា": 3334,
      "ស្រាយ": 3335,
      "ឆ្": 3336,
      "ប្ល": 3337,
      "រុង": 3338,
      "ies": 3339,
      "គ្រោះ": 3340,
      "ខ្សែ": 3341,
      "កៈ": 3342,
      "ud": 3343,
      "ក្មេ": 3344,
      "ទាំងនេះ": 3345,
      "បោះឆ្នោត": 3346,
      "ព្រះមហាក្សត្រ": 3347,
      "១៧": 3348,
      "ទោះបី": 3349,
      "័រ": 3350,
      "តិយ": 3351,
      "ក្រាបទូល": 3352,
      "ប្រៀប": 3353,
      "គូ": 3354,
      "តន": 3355,
      "ភារ": 3356,
      "វិទ្យា": 3357,
      "ានិ": 3358,
      "ស្រឡះ": 3359,
      "ក៏ដោយ": 3360,
      "ក្រម": 3361,
      "យប់": 3362,
      "ិកា": 3363,
      "អាមេរិ": 3364,
      "ទាប": 3365,
      "បឋ": 3366,
      "វ៉": 3367,
      "បន្ទាប់ពី": 3368,
      "រួចហើយ": 3369,
      "ខាងក្នុង": 3370,
      "លើស": 3371,
      "បុរាណ": 3372,
      "ចេ": 3373,
      "សិក្ខាបទ": 3374,
      "ោទ": 3375,
      "ស្អាត": 3376,
      "និយម": 3377,
      "លំបាក": 3378,
      "សម្បុរ": 3379,
      "គហបតី": 3380,
      "សេដ្ឋកិច្ច": 3381,
      "ោន": 3382,
      "ជីវ": 3383,
      "កំណើត": 3384,
      "បណ្ដ": 3385,
      "ឈប់": 3386,
      "ចង្អ": 3387,
      "ចក្ខុ": 3388,
      "សមាជិក": 3389,
      "ស្រែ": 3390,
      "សម្ត": 3391,
      "ia": 3392,
      "ខាងមុខ": 3393,
      "សាធារ": 3394,
      "per": 3395,
      "ចិញ្ច": 3396,
      "កល": 3397,
      "្ត្រ": 3398,
      "សោ": 3399,
      "សោក": 3400,
      "សាន": 3401,
      "គតិ": 3402,
      "ពឹង": 3403,
      "សក្": 3404,
      "ាទាន": 3405,
      "វិទ្យាល័យ": 3406,
      "ការពារ": 3407,
      "ld": 3408,
      "ព្រះតថាគត": 3409,
      "uc": 3410,
      "អនា": 3411,
      "បង្រ": 3412,
      "ពន្លឺ": 3413,
      "សច្ច": 3414,
      "អង់": 3415,
      "ឌ្ឍ": 3416,
      "អរហន្ត": 3417,
      "វប្ប": 3418,
      "កសាង": 3419,
      "ខាន": 3420,
      "ជេ": 3421,
      "បញ្ចូល": 3422,
      "សំណាក់": 3423,
      "ity": 3424,
      "ដូចគ្នា": 3425,
      "ឪពុក": 3426,
      "Evil": 3427,
      "ល្ម": 3428,
      "កណ្ដាល": 3429,
      "ួញ": 3430,
      "ខ្លាច": 3431,
      "ប្រឹក្សា": 3432,
      "កប្ប": 3433,
      "his": 3434,
      "ជឿ": 3435,
      "ប៉ុន": 3436,
      "ស្រេច": 3437,
      "ម៉ឺន": 3438,
      "ឡុង": 3439,
      "ស្រួល": 3440,
      "មួយចំនួន": 3441,
      "ជាក់ច្បាស់": 3442,
      "រើ": 3443,
      "អាប": 3444,
      "ess": 3445,
      "20": 3446,
      "pl": 3447,
      "ទង": 3448,
      "end": 3449,
      "អង្គរ": 3450,
      "វគ្គ": 3451,
      "eg": 3452,
      "ចិ": 3453,
      "ប្រពន្ធ": 3454,
      "បិទ": 3455,
      "សរសេរ": 3456,
      "កេ": 3457,
      "ត្រិះរិះ": 3458,
      "បំណង": 3459,
      "្រ្ត": 3460,
      "គ្រួ": 3461,
      "ភ្លឺ": 3462,
      "ខ្ច": 3463,
      "គាថា": 3464,
      "ផលិត": 3465,
      "បង្គាប់": 3466,
      "ដេញ": 3467,
      "នរ": 3468,
      "ក្លា": 3469,
      "សិន": 3470,
      "cl": 3471,
      "រាងកាយ": 3472,
      "បញ្ជា": 3473,
      "សំឡេង": 3474,
      "យ៍": 3475,
      "ព្យាប": 3476,
      "កៅ": 3477,
      "យុទ្ធ": 3478,
      "ណិ": 3479,
      "ដូចម្ដេច": 3480,
      "បួស": 3481,
      "ចាក់": 3482,
      "អាង": 3483,
      "វិល": 3484,
      "កើតមាន": 3485,
      "សោត": 3486,
      "យាយ": 3487,
      "សាបសូន្យ": 3488,
      "mo": 3489,
      "ther": 3490,
      "សូម្បី": 3491,
      "នាន": 3492,
      "ឆ្អ": 3493,
      "គ្រាន់តែ": 3494,
      "pe": 3495,
      "rom": 3496,
      "នីមួយ": 3497,
      "ប្អ": 3498,
      "រាជធានី": 3499,
      "ial": 3500,
      "ឈាន": 3501,
      "ប្អូន": 3502,
      "ិច្ឆ": 3503,
      "បិតា": 3504,
      "ាស្ត្រ": 3505,
      "ត៌មាន": 3506,
      "សទ្ធា": 3507,
      "គល់": 3508,
      "ញុំ": 3509,
      "our": 3510,
      "ប្រារ": 3511,
      "អ្នកប្រាជ្ញ": 3512,
      "នៅពេល": 3513,
      "ong": 3514,
      "រយៈពេល": 3515,
      "ឈ្ន": 3516,
      "សប្": 3517,
      "ឲ្យបាន": 3518,
      "បញ្ហា": 3519,
      "វឌ្ឍ": 3520,
      "អក្ស": 3521,
      "តនៈ": 3522,
      "gr": 3523,
      "សតវត្ស": 3524,
      "វាទ": 3525,
      "បន្តិច": 3526,
      "ម្ព": 3527,
      "លិ": 3528,
      "ហ្ន៎": 3529,
      "ment": 3530,
      "ប្រភេទ": 3531,
      "ខាងក្រៅ": 3532,
      "គណៈ": 3533,
      "ដូរ": 3534,
      "ភ្ញ": 3535,
      "សន": 3536,
      "នាស": 3537,
      "ក្មេង": 3538,
      "បណ្តា": 3539,
      "ich": 3540,
      "កាលណា": 3541,
      "ម្តង": 3542,
      "ញុំាង": 3543,
      "ចេត": 3544,
      "សង្ស័យ": 3545,
      "ត្ថេរ": 3546,
      "សប្បាយ": 3547,
      "វែង": 3548,
      "វិស័យ": 3549,
      "ផ្លាស់": 3550,
      "អក្សរ": 3551,
      "ញ៉ាំង": 3552,
      "ពិភព": 3553,
      "ត្រើយ": 3554,
      "បញ្ញត្ត": 3555,
      "ញ្ច": 3556,
      "art": 3557,
      "so": 3558,
      "ព្រោះថា": 3559,
      "ប្រព័ន្ធ": 3560,
      "អ្នកណា": 3561,
      "ណោះ": 3562,
      "យោធា": 3563,
      "ខែត្រ": 3564,
      "ហ្វាយ": 3565,
      "ary": 3566,
      "អន": 3567,
      "ដុត": 3568,
      "ភ្នំពេញ": 3569,
      "ចោទ": 3570,
      "យស": 3571,
      "ញាប់": 3572,
      "សាវក": 3573,
      "),": 3574,
      "ph": 3575,
      "ចល": 3576,
      "ុធ": 3577,
      "ខាងលើ": 3578,
      "ចៅហ្វាយ": 3579,
      "សម្មាសម្": 3580,
      "គ្រួសារ": 3581,
      "កុល": 3582,
      "ប្រសិន": 3583,
      "បឋម": 3584,
      "ស្ថា": 3585,
      "ផ្អ": 3586,
      "ពិន": 3587,
      "វាំង": 3588,
      "ឧទ្": 3589,
      "រាជវង្ស": 3590,
      "សែន": 3591,
      "វិមុ": 3592,
      "ell": 3593,
      "ជុំវិញ": 3594,
      "្ជ": 3595,
      "សេព": 3596,
      "តាមរយៈ": 3597,
      "កូ": 3598,
      "ពង": 3599,
      "ពាន": 3600,
      "រោង": 3601,
      "១០០": 3602,
      "អត្ត": 3603,
      "ុច": 3604,
      "រឹង": 3605,
      "ព្រះសាស្តា": 3606,
      "form": 3607,
      "វប្បធម៌": 3608,
      "Car": 3609,
      "លាន": 3610,
      "បុព្វ": 3611,
      "ាមក": 3612,
      "សម្មាសម្ពុទ្ធ": 3613,
      "ល្ល": 3614,
      "តេជ": 3615,
      "អឺ": 3616,
      "ផ្ទាល់": 3617,
      "ចិញ្ចឹម": 3618,
      "ដៀល": 3619,
      "គាប់": 3620,
      "ពាន់": 3621,
      "ារី": 3622,
      "ical": 3623,
      "ate": 3624,
      "គមន៍": 3625,
      "អាមេរិក": 3626,
      "បម្រើ": 3627,
      "ទីនេះ": 3628,
      "១៩៧": 3629,
      "ជាទី": 3630,
      "ួម": 3631,
      "សំដៅ": 3632,
      "បាច់": 3633,
      "ាករ": 3634,
      "ជ្ញា": 3635,
      "នាំឲ្យ": 3636,
      "បំពេញ": 3637,
      "ហូរ": 3638,
      "ត្រៃ": 3639,
      "ង្ហ": 3640,
      "ជួន": 3641,
      "តិះ": 3642,
      "ម្ដង": 3643,
      "សិស្ស": 3644,
      "ផ្លែ": 3645,
      "អប់រំ": 3646,
      "ight": 3647,
      "២៥": 3648,
      "ង្ក": 3649,
      "one": 3650,
      "តិះដៀល": 3651,
      "ផ្តល់": 3652,
      "ធន": 3653,
      "ព្ធ": 3654,
      "ម៌្ម": 3655,
      "ក្រៃលែង": 3656,
      "អត់": 3657,
      "បញ្ជាក់": 3658,
      "ពន": 3659,
      "រលឹក": 3660,
      "ចិត": 3661,
      "សិល្ប": 3662,
      "កាលពី": 3663,
      "out": 3664,
      "ive": 3665,
      "sp": 3666,
      "ពេញចិត្ត": 3667,
      "ចរិយ": 3668,
      "ពាល់": 3669,
      "[[": 3670,
      "sh": 3671,
      "ប៊": 3672,
      "ឥទ្ធិ": 3673,
      "ានុ": 3674,
      "ខ្យល់": 3675,
      "]]": 3676,
      "អដ្ឋ": 3677,
      "១១": 3678,
      "ជាធម្មតា": 3679,
      "from": 3680,
      "ការប្រ": 3681,
      "ចែង": 3682,
      "ទីតាំង": 3683,
      "បញ្ចប់": 3684,
      "សង់": 3685,
      "អង្គការ": 3686,
      "សីហ": 3687,
      "ោមន": 3688,
      "នាយក": 3689,
      "លាវ": 3690,
      "ក្តៅ": 3691,
      "កាំ": 3692,
      "លាស់": 3693,
      "ចូលរួម": 3694,
      "ពិភពលោក": 3695,
      "man": 3696,
      "ស្ទឹង": 3697,
      "ស្ថាប": 3698,
      "ដាំ": 3699,
      "ោជន": 3700,
      "ទទួលបាន": 3701,
      "ភរិយា": 3702,
      "បញ្ជូន": 3703,
      "ផ្តើម": 3704,
      "ប្រសិនបើ": 3705,
      "យាង": 3706,
      "ថ្លៃ": 3707,
      "លាក់": 3708,
      "ព្រះអានន្ទ": 3709,
      "អាណ": 3710,
      "ib": 3711,
      "រេហ៍": 3712,
      "វិមុត្តិ": 3713,
      "អេ": 3714,
      "ស្ដាប់": 3715,
      "បៀត": 3716,
      "គម្": 3717,
      "យាន": 3718,
      "លាមក": 3719,
      "ry": 3720,
      "បៀន": 3721,
      "ort": 3722,
      "តារ": 3723,
      "វាច": 3724,
      "័ត": 3725,
      "ប្រដៅ": 3726,
      "លោ": 3727,
      "នំ": 3728,
      "ស្ចារ្យ": 3729,
      "we": 3730,
      "ស្រប": 3731,
      "ឧបាសក": 3732,
      "បូរ": 3733,
      "តីត": 3734,
      "ure": 3735,
      "កសិ": 3736,
      "នឹក": 3737,
      "ច្បាំង": 3738,
      "ពលរដ្ឋ": 3739,
      "ne": 3740,
      "wor": 3741,
      "ថត": 3742,
      "មកកាន់": 3743,
      "សប្បុរស": 3744,
      "អស្ចារ្យ": 3745,
      "ញ្ញាត": 3746,
      "ទឹកដី": 3747,
      "រ៉ុប": 3748,
      "ដូវ": 3749,
      "ហក": 3750,
      "ចោរ": 3751,
      "និស្ស": 3752,
      "ard": 3753,
      "ស្ត្រី": 3754,
      "រុងរឿង": 3755,
      "គ្ល": 3756,
      "លាយ": 3757,
      "ហរ": 3758,
      "អភិវឌ្ឍ": 3759,
      "ទេព": 3760,
      "ប្រម": 3761,
      "យល់ឃើញ": 3762,
      "គាម": 3763,
      "យួន": 3764,
      "ធ្ង": 3765,
      "រាត្រី": 3766,
      "ប្រេត": 3767,
      "ម៉ែ": 3768,
      "យំ": 3769,
      "ព្រះស្ដេច": 3770,
      "៣០": 3771,
      "វាចា": 3772,
      "រាម": 3773,
      "age": 3774,
      "ian": 3775,
      "Th": 3776,
      "ឆាំង": 3777,
      "ជញ្": 3778,
      "ហ្ល": 3779,
      "ខ្ទ": 3780,
      "បៀតបៀន": 3781,
      "Race": 3782,
      "ចម្រ": 3783,
      "នានា": 3784,
      "ទៅនឹង": 3785,
      "ជក": 3786,
      "ក្កៈ": 3787,
      "ដុំ": 3788,
      "ផ្ដើម": 3789,
      "និមិត្ត": 3790,
      "អតីត": 3791,
      "រោគ": 3792,
      "តំណាង": 3793,
      "ទៅលើ": 3794,
      "បក": 3795,
      "រាយ": 3796,
      "ម្កល់": 3797,
      "អ្នកស្រុក": 3798,
      "ាចន្ទ": 3799,
      "ធ្ន": 3800,
      "រដូវ": 3801,
      "គម្ពីរ": 3802,
      "ព្រះសមណ": 3803,
      "រិត": 3804,
      "ឥន្ទ្រ": 3805,
      "សេចក្តីត្រិះរិះ": 3806,
      "ម្យ៉ាង": 3807,
      "og": 3808,
      "កំពូល": 3809,
      "មាត្រា": 3810,
      "សៀវ": 3811,
      "មាណព": 3812,
      "កាន់តែ": 3813,
      "ធម្មជាតិ": 3814,
      "ងឺ": 3815,
      "បន្ថែម": 3816,
      "ត្ដ": 3817,
      "ជម្រ": 3818,
      "ទិន": 3819,
      "ទិត្យ": 3820,
      "របប": 3821,
      "ត្រូវតែ": 3822,
      "ជាពិសេស": 3823,
      "ពាល": 3824,
      "ខ្មៅ": 3825,
      "ទាក់ទង": 3826,
      "ឡើងវិញ": 3827,
      "ជំងឺ": 3828,
      "ដែនដី": 3829,
      "ត្រូវការ": 3830,
      "អង់គ្ល": 3831,
      "ទូទៅ": 3832,
      "មណ្ឌ": 3833,
      "ស្រាប់": 3834,
      "អាចារ": 3835,
      "ឥណ្ឌា": 3836,
      "បិណ្ឌបាត": 3837,
      "ហ្លួង": 3838,
      "ទីន": 3839,
      "បួន": 3840,
      "ឈ្នះ": 3841,
      "រាជការ": 3842,
      "tion": 3843,
      "២៤": 3844,
      "ម្តាយ": 3845,
      "អង់គ្លេស": 3846,
      "ឯណា": 3847,
      "ស្រូវ": 3848,
      "not": 3849,
      "ous": 3850,
      "ស្មារ": 3851,
      "ដ្ឋា": 3852,
      "បន្ល": 3853,
      "ប្រហារ": 3854,
      "ស្មារតី": 3855,
      "គាំ": 3856,
      "និកាយ": 3857,
      "គ្រាម": 3858,
      "ខាងក្រោម": 3859,
      "ated": 3860,
      "ប្រដាប់": 3861,
      "ប្រារព្ធ": 3862,
      "ពូជ": 3863,
      "តេយ្យ": 3864,
      "ភៅ": 3865,
      "បស្ស": 3866,
      "លួច": 3867,
      "ចំណង": 3868,
      "សៅ": 3869,
      "ាបត្តិ": 3870,
      "ព័ត៌មាន": 3871,
      "ដឹងខ្លួន": 3872,
      "ោមនស្ស": 3873,
      "ញ់": 3874,
      "បែរ": 3875,
      "ទំនាក់": 3876,
      "ចំណោម": 3877,
      "can": 3878,
      "me": 3879,
      "រីក": 3880,
      "អនុវត្ត": 3881,
      "ពោជ្ឈ": 3882,
      "ទស្សនៈ": 3883,
      "gh": 3884,
      "ស៊ូ": 3885,
      "ព្រំ": 3886,
      "រាគៈ": 3887,
      "ពង់": 3888,
      "អាស៊ី": 3889,
      "អាល": 3890,
      "ចក្រី": 3891,
      "យន្ត": 3892,
      "ប៉ះ": 3893,
      "ទារ": 3894,
      "ទល់": 3895,
      "ទូលាយ": 3896,
      "អឺរ៉ុប": 3897,
      "ប្រឆាំង": 3898,
      "ព័ទ្ធ": 3899,
      "ទន់": 3900,
      "ហួស": 3901,
      "តទៅទៀត": 3902,
      "ផស្ស": 3903,
      "ឹះ": 3904,
      "អាការ": 3905,
      "សភាវៈ": 3906,
      "លាភ": 3907,
      "ញាណ": 3908,
      "ចៅពញា": 3909,
      "សៀវភៅ": 3910,
      "វាល": 3911,
      "ណាមិញ": 3912,
      "ព្ទ": 3913,
      "ចម្ល": 3914,
      "គម្រ": 3915,
      "រឹត": 3916,
      "បតេយ្យ": 3917,
      "ទិព្វ": 3918,
      "បំរើ": 3919,
      "ការសិក្សា": 3920,
      "ទំនាក់ទំនង": 3921,
      "ine": 3922,
      "នាំយក": 3923,
      "ពួកយើង": 3924,
      "នរក": 3925,
      "កុហក": 3926,
      "សាវត្ថ": 3927,
      "សួង": 3928,
      "យ៉ាងណាមិញ": 3929,
      "ite": 3930,
      "ឈ្លាស": 3931,
      "សាវត្ថី": 3932,
      "រង្វ": 3933,
      "ព្រះអា": 3934,
      "ចាម": 3935,
      "បាញ់": 3936,
      "ហំ": 3937,
      "ក្រោក": 3938,
      "សិល": 3939,
      "បំផ្ល": 3940,
      "អញ្ជ": 3941,
      "ធ្លាយ": 3942,
      "ran": 3943,
      "និរ": 3944,
      "មកវិញ": 3945,
      "ពោជ្ឈង្គ": 3946,
      "ថេរៈ": 3947,
      "ហ៊្វា": 3948,
      "តម្ល": 3949,
      "ជាបច្ច័យ": 3950,
      "សេចក្តីទុក្ខ": 3951,
      "ave": 3952,
      "១៩៩": 3953,
      "ង្សា": 3954,
      "ហិត": 3955,
      "អន្តរជាតិ": 3956,
      "ល្ង": 3957,
      "ស្លៀក": 3958,
      "ចាញ់": 3959,
      "សូវ": 3960,
      "និមន្ត": 3961,
      "ក្រែង": 3962,
      "ហ៊ាន": 3963,
      "សង្រួម": 3964,
      "គំន": 3965,
      "សកម្ម": 3966,
      "ចិត្ដ": 3967,
      "18": 3968,
      "អាសនៈ": 3969,
      "ព័រ": 3970,
      "អាបត្ដិ": 3971,
      "ip": 3972,
      "មហារ": 3973,
      "ពញាចន្ទ": 3974,
      "____": 3975,
      "វិសេស": 3976,
      "ដុះ": 3977,
      "អង្វ": 3978,
      "ទ្ទ": 3979,
      "ប្រឹង": 3980,
      "ik": 3981,
      "សន្ធ": 3982,
      "ផ្សព្វ": 3983,
      "ដាយ": 3984,
      "តួ": 3985,
      "បាត្រ": 3986,
      "សក់": 3987,
      "ទុក្ក": 3988,
      "ជរា": 3989,
      "ព្រឹក": 3990,
      "ក្រុមប្រឹក្សា": 3991,
      "dis": 3992,
      "អន្ល": 3993,
      "ren": 3994,
      "មេត្តា": 3995,
      "អាចារ្យ": 3996,
      "ិនិ": 3997,
      "ត្រឹមត្រូវ": 3998,
      "មណ្ឌល": 3999,
      "ខាត": 4000,
      "ធរ": 4001,
      "ក្ខា": 4002,
      "តិរ": 4003,
      "over": 4004,
      "ជេដ្ឋា": 4005,
      "ផ្ដល់": 4006,
      "ជប៉ុន": 4007,
      "ស្ប": 4008,
      "ទូន្មាន": 4009,
      "which": 4010,
      "ដដែល": 4011,
      "បាក់": 4012,
      "ឯកសារ": 4013,
      "បារាជិក": 4014,
      "តម្កល់": 4015,
      "ទាញ": 4016,
      "យា": 4017,
      "អូ": 4018,
      "កំពុងតែ": 4019,
      "ទុក្កដ": 4020,
      "ជ្រើ": 4021,
      "ម៉ា": 4022,
      "ភោជន": 4023,
      "ប្តូរ": 4024,
      "វស្សា": 4025,
      "ត្រួត": 4026,
      "ould": 4027,
      "អនុញ្ញាត": 4028,
      "ពិនិត្យ": 4029,
      "bl": 4030,
      "ស្រែក": 4031,
      "អាវុធ": 4032,
      "បរម": 4033,
      "រាស្ត្រ": 4034,
      "៥០": 4035,
      "ind": 4036,
      "ភ្លៀង": 4037,
      "ពិស": 4038,
      "ass": 4039,
      "ចាប់ពី": 4040,
      "នៅឡើយ": 4041,
      "ក្រៅពី": 4042,
      "សេដ្ឋី": 4043,
      "ណ្ណៈ": 4044,
      "cont": 4045,
      "ព្វា": 4046,
      "អដ្ឋក": 4047,
      "ra": 4048,
      "up": 4049,
      "ព្រះធម៌": 4050,
      "ហ៊ុន": 4051,
      "ខន្ធ": 4052,
      "ប្រមូល": 4053,
      "្យា": 4054,
      "អណ្ត": 4055,
      "ង្គល": 4056,
      "ុល្ល": 4057,
      "សម្ពុទ្ធ": 4058,
      "ast": 4059,
      "សាធារណ": 4060,
      "ស្អ": 4061,
      "កំហ": 4062,
      "ព្រះស្រី": 4063,
      "ឆេះ": 4064,
      "ome": 4065,
      "now": 4066,
      "ថោក": 4067,
      "វាស": 4068,
      "មរណ": 4069,
      "ចន្ល": 4070,
      "ភ្លាម": 4071,
      "ទាស់": 4072,
      "ឆាប់": 4073,
      "អើយ": 4074,
      "ទេសចរ": 4075,
      "ត្រឹមតែ": 4076,
      "ល្មម": 4077,
      "រោម": 4078,
      "តាមពិត": 4079,
      "ព្យាបាទ": 4080,
      "បង្រៀន": 4081,
      "ដោះស្រាយ": 4082,
      "គោក": 4083,
      "មាតុ": 4084,
      "ករណី": 4085,
      "មន្ដ": 4086,
      "ign": 4087,
      "អម": 4088,
      "ព្រះចៅ": 4089,
      "ឥទ្ធិពល": 4090,
      "សុទ្ធតែ": 4091,
      "ស្រាវ": 4092,
      "ចន្លោះ": 4093,
      "ពាំង": 4094,
      "វារ": 4095,
      "សង្កាត់": 4096,
      "សាស្រ្ត": 4097,
      "នាំមក": 4098,
      "រកឃើញ": 4099,
      "ក្បែរ": 4100,
      "បុរី": 4101,
      "លំនៅ": 4102,
      "សីហនុ": 4103,
      "ផ្សព្វផ្សាយ": 4104,
      "ហាក់": 4105,
      "ក្រោធ": 4106,
      "ទូត": 4107,
      "ើក": 4108,
      "ទៅវិញ": 4109,
      "អាណាចក្រ": 4110,
      "រដ្ឋបាល": 4111,
      "ឈឺ": 4112,
      "ទៀប": 4113,
      "រជ្ជ": 4114,
      "បង្កើតឡើង": 4115,
      "សក": 4116,
      "ផ្គ": 4117,
      "យកមក": 4118,
      "តុលា": 4119,
      "គាំទ្រ": 4120,
      "An": 4121,
      "ជ្រាវ": 4122,
      "ទោសៈ": 4123,
      "គួរឲ្យ": 4124,
      "កំចាត់": 4125,
      "ough": 4126,
      "ចាប់ផ្ដើម": 4127,
      "សណ្": 4128,
      "ដំបង": 4129,
      "ក្លិន": 4130,
      "មោហៈ": 4131,
      "បែង": 4132,
      "ដូច្នេះហើយ": 4133,
      "ភាសិត": 4134,
      "មិច្ឆ": 4135,
      "ish": 4136,
      "ភ្": 4137,
      "ាន្ត": 4138,
      "ាស៊ី": 4139,
      "មហារាជ": 4140,
      "ខា": 4141,
      "សេរី": 4142,
      "កម្មវិធី": 4143,
      "សិលាចារ": 4144,
      "វេស្ស": 4145,
      "ិយ៍": 4146,
      "pr": 4147,
      "ឌី": 4148,
      "េន": 4149,
      "បរទេស": 4150,
      "ព្រះសារី": 4151,
      "ពាណិ": 4152,
      "មជ្ឈ": 4153,
      "ស្ដី": 4154,
      "ធ្វើដំណើរ": 4155,
      "ផ្សារ": 4156,
      "លទ្ធ": 4157,
      "មហេ": 4158,
      "ប្រវត្តិសាស្ត្រ": 4159,
      "បរិស័": 4160,
      "សក្ការៈ": 4161,
      "ge": 4162,
      "លាប់": 4163,
      "រច": 4164,
      "គ្រាប់": 4165,
      "ound": 4166,
      "10": 4167,
      "មោគ្គល": 4168,
      "ព្រះអាទិត្យ": 4169,
      "ស្សប": 4170,
      "មោគ្គល្ល": 4171,
      "សង្ស": 4172,
      "អនាគត": 4173,
      "នាញ": 4174,
      "fl": 4175,
      "ផឹក": 4176,
      "ម្យ": 4177,
      "និក": 4178,
      "សម្បទា": 4179,
      "ឃ្លាត": 4180,
      "អ្នកចូរ": 4181,
      "ប្រចាំ": 4182,
      "អានិ": 4183,
      "សរី": 4184,
      "ហាម": 4185,
      "ធ្វើឱ្យ": 4186,
      "បរិស័ទ": 4187,
      "ស្តី": 4188,
      "ដើម្បីឲ្យ": 4189,
      "ជនបទ": 4190,
      "ever": 4191,
      "ore": 4192,
      "អត្តភាព": 4193,
      "ជានិ": 4194,
      "អាគ": 4195,
      "បន្ទាប់មក": 4196,
      "ធ្ងន់": 4197,
      "ព្រះក": 4198,
      "សម្លេង": 4199,
      "ស្រាវជ្រាវ": 4200,
      "ចោម": 4201,
      "ហត្ថ": 4202,
      "អាឡ": 4203,
      "str": 4204,
      "ដរាប": 4205,
      "ដង្ហ": 4206,
      "ផ្តាច់": 4207,
      "គប់": 4208,
      "និពន្ធ": 4209,
      "ធ្វើទុក": 4210,
      "ព្រះបន្ទ": 4211,
      "te": 4212,
      "តែងតែ": 4213,
      "ប្រមាទ": 4214,
      "ក្រហាយ": 4215,
      "ទង់": 4216,
      "កិច្ចការ": 4217,
      "ដែក": 4218,
      "ចាប់ផ្តើម": 4219,
      "មរណៈ": 4220,
      "មោគ្គល្លាន": 4221,
      "ie": 4222,
      "សឹក": 4223,
      "ល្បី": 4224,
      "អានិសង្ស": 4225,
      "ឃាត់": 4226,
      "កី": 4227,
      "ម្ដាយ": 4228,
      "សេចក្តីប្រាថ្នា": 4229,
      "រង់": 4230,
      "ឫទ័យ": 4231,
      "ជយ": 4232,
      "ធិបតេយ្យ": 4233,
      "ស្ដ្រ": 4234,
      "វម៌្ម": 4235,
      "បីតិ": 4236,
      "កោស": 4237,
      "ឱកាស": 4238,
      "ជំនឿ": 4239,
      "បព្វ": 4240,
      "្រ្": 4241,
      "ក្រោយពី": 4242,
      "ប៉ុណ្ណេះ": 4243,
      "មហេសី": 4244,
      "ហោ": 4245,
      "ឯណោះ": 4246,
      "aus": 4247,
      "សំឡាញ់": 4248,
      "្វេង": 4249,
      "ប្រជាពលរដ្ឋ": 4250,
      "ចាត់ទុក": 4251,
      "iz": 4252,
      "ma": 4253,
      "យើងខ្ញុំ": 4254,
      "ach": 4255,
      "ជិន": 4256,
      "ពរ": 4257,
      "យាម": 4258,
      "ព្យាករ": 4259,
      "អសុ": 4260,
      "ច្ឆាន": 4261,
      "សិលាចារឹក": 4262,
      "ាមី": 4263,
      "គ្រឹះ": 4264,
      "រិយាប": 4265,
      "fe": 4266,
      "របៀប": 4267,
      "ខិត": 4268,
      "der": 4269,
      "ha": 4270,
      "ទ្វី": 4271,
      "ជំនាញ": 4272,
      "សន្តិ": 4273,
      "ចលនា": 4274,
      "បំផ្លាញ": 4275,
      "ans": 4276,
      "បែកធ្លាយ": 4277,
      "ire": 4278,
      "ស្រស់": 4279,
      "សម្តែង": 4280,
      "មោក្ខ": 4281,
      "ក្រសួង": 4282,
      "អ្នកស្រី": 4283,
      "ភាវ": 4284,
      "ពេជ្រ": 4285,
      "ណែន": 4286,
      "ស្រះ": 4287,
      "សហរដ្ឋ": 4288,
      "ភូត": 4289,
      "លុប": 4290,
      "វ័យ": 4291,
      "៥០០": 4292,
      "ិន្ទ": 4293,
      "ult": 4294,
      "ដោយសារតែ": 4295,
      "មិច្ឆា": 4296,
      "ទាត់": 4297,
      "ទ្រទ្រង់": 4298,
      "ខ្នង": 4299,
      "កត់": 4300,
      "តម្លៃ": 4301,
      "have": 4302,
      "ចតុ": 4303,
      "វណ្ណៈ": 4304,
      "សន្ទ": 4305,
      "ព្រះសុ": 4306,
      "act": 4307,
      "បក្សី": 4308,
      "ខូច": 4309,
      "ញ័រ": 4310,
      "ok": 4311,
      "មឿង": 4312,
      "ចុងក្រោយ": 4313,
      "ចម្រៀង": 4314,
      "ព្រោះតែ": 4315,
      "កេណ្ឌ": 4316,
      "តថា": 4317,
      "ions": 4318,
      "ខៀវ": 4319,
      "ប្រហែលជា": 4320,
      "ព្រះបន្ទូល": 4321,
      "ជោគ": 4322,
      "មធ្យ": 4323,
      "លទ្ធិ": 4324,
      "ត្រច": 4325,
      "បរិព្វា": 4326,
      "មូលដ្ឋាន": 4327,
      "ទូរ": 4328,
      "ការបោះឆ្នោត": 4329,
      "ater": 4330,
      "ដណ្ត": 4331,
      "ព្រះហ": 4332,
      "វៃ": 4333,
      "ព្រះទីន": 4334,
      "ទោះបីជា": 4335,
      "មង្គល": 4336,
      "...": 4337,
      "ទ្វីប": 4338,
      "ធ្វើការ": 4339,
      "ប្រទះ": 4340,
      "ចម្ប": 4341,
      "សាកល": 4342,
      "ជាមួយគ្នា": 4343,
      "ទំព័រ": 4344,
      "សកម្មភាព": 4345,
      "ការគ្រប់គ្រង": 4346,
      "ព្រះទីនាំង": 4347,
      "ber": 4348,
      "តាក់": 4349,
      "ឡែក": 4350,
      "បច្ចេក": 4351,
      "200": 4352,
      "ក្ខន្ធ": 4353,
      "រូបភាព": 4354,
      "la": 4355,
      "សំដី": 4356,
      "លុក": 4357,
      "គ្រហ": 4358,
      "គណបក្ស": 4359,
      "២៣": 4360,
      "ជ្រើសរ": 4361,
      "ញោម": 4362,
      "អម្ចាស់": 4363,
      "ធ្វើអោយ": 4364,
      "ភូមា": 4365,
      "ឯទៀត": 4366,
      "ព្រះភ": 4367,
      "វិបស្ស": 4368,
      "ខ្លី": 4369,
      "ប្រពៃណី": 4370,
      "ទស": 4371,
      "ជ្រៅ": 4372,
      "ខ្ពង់": 4373,
      "ចក្រព": 4374,
      "ព្រៀង": 4375,
      "ត្រជាក់": 4376,
      "ជ្ជកម្ម": 4377,
      "ឥសី": 4378,
      "ដូន": 4379,
      "ព្រះវិហារ": 4380,
      "រជ្ជកាល": 4381,
      "ជ្រើសរើស": 4382,
      "ep": 4383,
      "ជានិច្ច": 4384,
      "ide": 4385,
      "ច្រឡ": 4386,
      "េយ្យ": 4387,
      "បិដក": 4388,
      "ឈាម": 4389,
      "បទា": 4390,
      "ពន្យល់": 4391,
      "were": 4392,
      "គង្គ": 4393,
      "ថុ": 4394,
      "ទាល់": 4395,
      "ប្រគល់": 4396,
      "សំរេច": 4397,
      "ឥរិយាប": 4398,
      "៤០": 4399,
      "ូម៉": 4400,
      "ស្លឹក": 4401,
      "ឥរិយាបថ": 4402,
      "តាប": 4403,
      "ក្សត្រិយ៍": 4404,
      "ឋិតនៅក្នុង": 4405,
      "អម្ប": 4406,
      "វិមាន": 4407,
      "ff": 4408,
      "នឿយ": 4409,
      "ឧបមា": 4410,
      "បងប្អូន": 4411,
      "ឧទា": 4412,
      "្ម័ន": 4413,
      "អី": 4414,
      "បណ្ដា": 4415,
      "ិម": 4416,
      "សិទ្ធ": 4417,
      "អនុគ្រោះ": 4418,
      "សម្ព័ន្ធ": 4419,
      "មើលឃើញ": 4420,
      "but": 4421,
      "mer": 4422,
      "៉េ": 4423,
      "សេន": 4424,
      "កំឡុង": 4425,
      "ជំនួស": 4426,
      "ច្ឆា": 4427,
      "ចរិត": 4428,
      "រថ": 4429,
      "ព្រះទ័យ": 4430,
      "រាប់អាន": 4431,
      "ត្រឡប់មក": 4432,
      "សម្តេច": 4433,
      "គន្ធ": 4434,
      "នៅជា": 4435,
      "ក្រាល": 4436,
      "កំឡ": 4437,
      "បរិយាយ": 4438,
      "សេនាបតី": 4439,
      "ព្រមព្រៀង": 4440,
      "បរិនិ": 4441,
      "ស្នា": 4442,
      "គំរ": 4443,
      "១៩៦": 4444,
      "you": 4445,
      "ឋិតនៅ": 4446,
      "ជិះ": 4447,
      "ree": 4448,
      "ម្នាក់ឯង": 4449,
      "កូរ": 4450,
      "យុវ": 4451,
      "បាត់បង់": 4452,
      "13": 4453,
      "ear": 4454,
      "នន្ទ": 4455,
      "បាលី": 4456,
      "ចូលចិត្ត": 4457,
      "អង្": 4458,
      "ូឡ": 4459,
      "ត្រាច់": 4460,
      "អាពា": 4461,
      "ផ្សំ": 4462,
      "ack": 4463,
      "សមាទាន": 4464,
      "ហ្នឹង": 4465,
      "មន្ដ្រី": 4466,
      "ence": 4467,
      "ចំណុច": 4468,
      "សិល្បៈ": 4469,
      "sy": 4470,
      "ឆ្វេង": 4471,
      "ចៀស": 4472,
      "ទាំងមូល": 4473,
      "ហុ": 4474,
      "ាស្រ": 4475,
      "ខ្លា": 4476,
      "ហេតុតែ": 4477,
      "ស្វាមី": 4478,
      "ស្ទុះ": 4479,
      "ចង្អៀត": 4480,
      "ឧទាហរ": 4481,
      "ធុ": 4482,
      "ទេវលោក": 4483,
      "ខឹង": 4484,
      "ពុទ្ធសាសនា": 4485,
      "រួមមាន": 4486,
      "តំណែង": 4487,
      "14": 4488,
      "pos": 4489,
      "និទាន": 4490,
      "ពិជ័យ": 4491,
      "ដំណឹង": 4492,
      "ឣ្នក": 4493,
      "សត្វលោក": 4494,
      "ទុកដាក់": 4495,
      "ទំហំ": 4496,
      "សឹង": 4497,
      "ន្និ": 4498,
      "ភ្ជាប់": 4499,
      "this": 4500,
      "ប្រក្រ": 4501,
      "សមត្ថ": 4502,
      "រដ្ឋមន្ត្រី": 4503,
      "វរ្ម័ន": 4504,
      "មាតាប": 4505,
      "ប្រួល": 4506,
      "ថ្នាំ": 4507,
      "តិរច្ឆាន": 4508,
      "ឆាន់": 4509,
      "…)": 4510,
      "វិបត្តិ": 4511,
      "ឯករាជ្យ": 4512,
      "ស៊ប់": 4513,
      "ប្រជាធិបតេយ្យ": 4514,
      "សន្សំ": 4515,
      "ថី": 4516,
      "ច្ចរិត": 4517,
      "នរណា": 4518,
      "ឧបករណ៍": 4519,
      "អត្ថបទ": 4520,
      "ងង": 4521,
      "សេចក្តីសង្ស័យ": 4522,
      "ណ្ហ": 4523,
      "ភត្ត": 4524,
      "ប្រក្រតី": 4525,
      "oy": 4526,
      "ូលី": 4527,
      "សូមឲ្យ": 4528,
      "សាធារណរដ្ឋ": 4529,
      "អវិជ្ជា": 4530,
      "វិចិ": 4531,
      "ញ្ញៈ": 4532,
      "ឧបេ": 4533,
      "គ្រប់គ្រាន់": 4534,
      "បិទបាំង": 4535,
      "ល្": 4536,
      "ទុច្ចរិត": 4537,
      "ប្រែប្រួល": 4538,
      "ប្រជ": 4539,
      "ាលិ": 4540,
      "ខ្លឹម": 4541,
      "លំអ": 4542,
      "ព្រះអរហន្ត": 4543,
      "េស៊ី": 4544,
      "សាកលវិទ្យាល័យ": 4545,
      "តាក់តែង": 4546,
      "គិ": 4547,
      "អន្ទ": 4548,
      "អំណ": 4549,
      "ចូលកាន់": 4550,
      "ស្រ្តី": 4551,
      "ពេទ្យ": 4552,
      "ost": 4553,
      "បឹង": 4554,
      "ព្រះសម្ពុទ្ធ": 4555,
      "ឆ្នេរ": 4556,
      "angu": 4557,
      "ឃ្ម": 4558,
      "ដ្ត": 4559,
      "ភូ": 4560,
      "ស្បែក": 4561,
      "ស្វាយ": 4562,
      "សព": 4563,
      "អ្នកឯង": 4564,
      "pre": 4565,
      "rit": 4566,
      "ថ្វី": 4567,
      "មិញ": 4568,
      "សេចក្តីត្រេកអរ": 4569,
      "ice": 4570,
      "ច្បាស់លាស់": 4571,
      "ត្រចៀក": 4572,
      "ដណ្": 4573,
      "ដីកា": 4574,
      "ហ្មង": 4575,
      "ៀនប្រដៅ": 4576,
      "២៧": 4577,
      "ទេវី": 4578,
      "បង្អោន": 4579,
      "ទុយ": 4580,
      "មាតាបិតា": 4581,
      "ប្រែង": 4582,
      "ណាញ់": 4583,
      "its": 4584,
      "ស្រាប់តែ": 4585,
      "ព្រះចន្ទ": 4586,
      "ស្ងៀម": 4587,
      "ឧបេក្ខា": 4588,
      "សមា": 4589,
      "សង្ឃា": 4590,
      "អ្នកធ្វើ": 4591,
      "ទីណា": 4592,
      "ស្ទើរ": 4593,
      "ចេតិយ": 4594,
      "ទីពឹង": 4595,
      "សេចក្តីស្លាប់": 4596,
      "ខ្ជាប់": 4597,
      "ភ្ញៀវ": 4598,
      "២៨": 4599,
      "ប្រភព": 4600,
      "អាចនឹង": 4601,
      "ន្ទី": 4602,
      "បដិបទា": 4603,
      "ស្រាល": 4604,
      "ខាងក្រោយ": 4605,
      "ក្បួន": 4606,
      "ពាណិជ្ជកម្ម": 4607,
      "របរ": 4608,
      "ធ្នូ": 4609,
      "other": 4610,
      "២៦": 4611,
      "ប្ដូរ": 4612,
      "ពីព្រោះ": 4613,
      "បញ្ចេញ": 4614,
      "បរិនិព្វាន": 4615,
      "បរិស": 4616,
      "ជំនាន់": 4617,
      "ឧបាទាន": 4618,
      "អារាម": 4619,
      "កោសល": 4620,
      "ការរលត់": 4621,
      "ចក្រភព": 4622,
      "ាចារ្យ": 4623,
      "ធើ": 4624,
      "ទប់": 4625,
      "ចេះដឹង": 4626,
      "ប៉ះពាល់": 4627,
      "ព្រះជន": 4628,
      "កំឡាំង": 4629,
      "mon": 4630,
      "ទ័រ": 4631,
      "ame": 4632,
      ").": 4633,
      "សេក": 4634,
      "ដង្ហើម": 4635,
      "ថ្": 4636,
      "អាជ្ញា": 4637,
      "ធម្មវិន័យ": 4638,
      "នារី": 4639,
      "បតិ": 4640,
      "វង្គ": 4641,
      "It": 4642,
      "langu": 4643,
      "ខណ្ឌ": 4644,
      "ds": 4645,
      "ally": 4646,
      "យោគ": 4647,
      "វត្ដ": 4648,
      "had": 4649,
      "ប្រោស": 4650,
      "ង្ការ": 4651,
      "២៩": 4652,
      "ក្រឡ": 4653,
      "វៀរចាក": 4654,
      "ជីវៈ": 4655,
      "ឆន្ទ": 4656,
      "បរិសទ្យ": 4657,
      "pres": 4658,
      "ust": 4659,
      "ភ្លេច": 4660,
      "សម្មតិ": 4661,
      "able": 4662,
      "ាធិការ": 4663,
      "ណាយ": 4664,
      "ឫទ្ធិ": 4665,
      "លប់": 4666,
      "ច្រៀង": 4667,
      "បែងចែក": 4668,
      "ខត្តិ": 4669,
      "សាទ": 4670,
      "also": 4671,
      "ពីរោះ": 4672,
      "គារ": 4673,
      "វង្វ": 4674,
      "សំបុត្រ": 4675,
      "ase": 4676,
      "សរ៍": 4677,
      "សញ្ញ": 4678,
      "ជីក": 4679,
      "ល្អិត": 4680,
      "មិត្រ": 4681,
      "ឧបាយ": 4682,
      "ពោធិ៍": 4683,
      "ខ្វះ": 4684,
      "ក្រុមហ៊ុន": 4685,
      "ាទី": 4686,
      "វត្សរ៍": 4687,
      "fer": 4688,
      "អើ": 4689,
      "ប្រេង": 4690,
      "បញ្ជី": 4691,
      "តោ": 4692,
      "បល់": 4693,
      "ឧបាលិ": 4694,
      "បារមី": 4695,
      "ស្មៅ": 4696,
      "វិបាក": 4697,
      "ភ្ញាក់": 4698,
      "ផ្លាស់ប្តូរ": 4699,
      "ខ្ពង់ខ្ពស់": 4700,
      "has": 4701,
      "ចេញមក": 4702,
      "ផស្សៈ": 4703,
      "ន្ថ": 4704,
      "ula": 4705,
      "ស្វា": 4706,
      "duc": 4707,
      "នៅឯ": 4708,
      "បណ្តាល": 4709,
      "តាបស": 4710,
      "ទម្ល": 4711,
      "គ្រង": 4712,
      "សម្មា": 4713,
      "និគម": 4714,
      "ចាត់ចែង": 4715,
      "មន្ទី": 4716,
      "bo": 4717,
      "ood": 4718,
      "ង្គំ": 4719,
      "ប្រព្រឹត្តិ": 4720,
      "សហគមន៍": 4721,
      "ទស្សន": 4722,
      "St": 4723,
      "រទ": 4724,
      "ប្រៀនប្រដៅ": 4725,
      "ស្រង់": 4726,
      "ភោគៈ": 4727,
      "ts": 4728,
      "ក្ដៅ": 4729,
      "ព្រះថេរៈ": 4730,
      "រួប": 4731,
      "តែងតាំង": 4732,
      "ks": 4733,
      "ចំណេះ": 4734,
      "ស្លុត": 4735,
      "ប្រឹងប្រែង": 4736,
      "កំល": 4737,
      "លាប": 4738,
      "ហាត់": 4739,
      "គួរតែ": 4740,
      "ញ្ជ័យ": 4741,
      "អរិយសាវក": 4742,
      "វង្វេង": 4743,
      "រហ័": 4744,
      "សន្ម": 4745,
      "cent": 4746,
      "ដំណាក់": 4747,
      "១៩៤": 4748,
      "ទោះជា": 4749,
      "ដំណើរការ": 4750,
      "port": 4751,
      "តៈ": 4752,
      "ក្លាយទៅជា": 4753,
      "តួច": 4754,
      "ព្រះនគរ": 4755,
      "សន្ធិ": 4756,
      "ញ្ចាយ": 4757,
      "ចរិយធម៌": 4758,
      "ងងឹត": 4759,
      "កើន": 4760,
      "ជនៈ": 4761,
      "ធិបតី": 4762,
      "ទិញ": 4763,
      "ក្តិ": 4764,
      "ណ៏": 4765,
      "ស្មី": 4766,
      "comp": 4767,
      "ប្លែក": 4768,
      "ទម្រ": 4769,
      "្រីក": 4770,
      "មុទ្រ": 4771,
      "ទាស": 4772,
      "ព្រះបង្គំ": 4773,
      "ឋានៈ": 4774,
      "គេច": 4775,
      "សន្និ": 4776,
      "ឺម៉": 4777,
      "ចេតោ": 4778,
      "មរាជ": 4779,
      "ប្ដី": 4780,
      "តិចតួច": 4781,
      "Fran": 4782,
      "ផ្នួស": 4783,
      "គេន": 4784,
      "បណ្": 4785,
      "ញាប់ញ័រ": 4786,
      "គ្រហស្ថ": 4787,
      "ីង": 4788,
      "សាធារណៈ": 4789,
      "សរីរៈ": 4790,
      "អវ": 4791,
      "កញ្ច": 4792,
      "បណ្ដាល": 4793,
      "មុនី": 4794,
      "សួគ៌ា": 4795,
      "bod": 4796,
      "cons": 4797,
      "ធ្លាក់ចុះ": 4798,
      "២១": 4799,
      "សំលាប់": 4800,
      "iet": 4801,
      "៨០": 4802,
      "ភូមិភាគ": 4803,
      "ទស្សនា": 4804,
      "រំលត់": 4805,
      "កេរ": 4806,
      "អូស": 4807,
      "ចាំបាច់": 4808,
      "Un": 4809,
      "dry": 4810,
      "រ៉ា": 4811,
      "សទ្ធម្ម": 4812,
      "លទ្ធផល": 4813,
      "tim": 4814,
      "រចនា": 4815,
      "ិស": 4816,
      "ដើមឈើ": 4817,
      "ទទួលយក": 4818,
      "ចេះតែ": 4819,
      "ដណ្ដើម": 4820,
      "សាត់": 4821,
      "ព្រេង": 4822,
      "កុម្ម": 4823,
      "ជំនះ": 4824,
      "ជេរ": 4825,
      "ែស": 4826,
      "ឧបោស": 4827,
      "ទ្វាជ": 4828,
      "they": 4829,
      "att": 4830,
      "កាន់កាប់": 4831,
      "ទ្រព្យសម្បត្តិ": 4832,
      "ក្សេ": 4833,
      "នៅក្រោម": 4834,
      "រំព": 4835,
      "des": 4836,
      "ue": 4837,
      "ទ្រឹ": 4838,
      "អធិករណ៍": 4839,
      "inc": 4840,
      "ជិ": 4841,
      "មេដឹកនាំ": 4842,
      "ចក្រពត្តិ": 4843,
      "ឫស": 4844,
      "ម្ខាង": 4845,
      "ល្បែង": 4846,
      "ទោមនស្ស": 4847,
      "ភ័": 4848,
      "ជាំ": 4849,
      "កសិកម្ម": 4850,
      "លុយ": 4851,
      "ផ្ស": 4852,
      "Kh": 4853,
      "បាច": 4854,
      "ិត្": 4855,
      "incl": 4856,
      "ចាប់តាំងពី": 4857,
      "ទូលព្រះបង្គំ": 4858,
      "ស្ងប់ស្ងាត់": 4859,
      "អង្វែង": 4860,
      "មហាសមុទ្រ": 4861,
      "្នេ": 4862,
      "ប្រកួត": 4863,
      "El": 4864,
      "រស្មី": 4865,
      "បំបែក": 4866,
      "កុលបុត្រ": 4867,
      "អញ្ជើញ": 4868,
      "ឧទាហរណ៍": 4869,
      "រទេះ": 4870,
      "les": 4871,
      "សង្រ្": 4872,
      "formula": 4873,
      "ច្យ": 4874,
      "តួន": 4875,
      "ទាវ": 4876,
      "យោង": 4877,
      "12": 4878,
      "ដេ": 4879,
      "ក្កិ": 4880,
      "វដ្ត": 4881,
      "កំចាត់បង់": 4882,
      "តស៊ូ": 4883,
      "ក្រឡា": 4884,
      "formula_": 4885,
      "លាង": 4886,
      "សក្យ": 4887,
      "ប្រឡ": 4888,
      "ប្រគេន": 4889,
      "មាន់": 4890,
      "ការអភិវឌ្ឍ": 4891,
      "ែវ": 4892,
      "rench": 4893,
      "br": 4894,
      "ជួរ": 4895,
      "most": 4896,
      "ផ្អែក": 4897,
      "លោភ": 4898,
      "ពិសោធ": 4899,
      "ens": 4900,
      "កាំភ្លើង": 4901,
      "ម៉ែត្រ": 4902,
      "ied": 4903,
      "បួល": 4904,
      "ជំនួយ": 4905,
      "ជោគជ័យ": 4906,
      "ail": 4907,
      "bec": 4908,
      "កម្រិត": 4909,
      "អរហត្ត": 4910,
      "យក្ស": 4911,
      "reat": 4912,
      "ពេលវេលា": 4913,
      "កុដិ": 4914,
      "បោ": 4915,
      "ព្រែក": 4916,
      "ារម្មណ៍": 4917,
      "សព្វគ្រប់": 4918,
      "សរុប": 4919,
      "no": 4920,
      "ណុ": 4921,
      "ព្រះសីហនុ": 4922,
      "do": 4923,
      "ដួល": 4924,
      "សេចក្តីសំគាល់": 4925,
      "វង្សា": 4926,
      "កំដៅ": 4927,
      "ព្រះជន្ម": 4928,
      "រោ": 4929,
      "French": 4930,
      "រម្យ": 4931,
      "part": 4932,
      "ទទួលស្គាល់": 4933,
      "វិទ្យាស": 4934,
      "ព្រះរាជាណាចក្រ": 4935,
      "ទាល់តែ": 4936,
      "ប្តី": 4937,
      "ព្រះអរិយ": 4938,
      "សម្ពោជ្ឈង្គ": 4939,
      "ស្ដាំ": 4940,
      "រុទ្ធ": 4941,
      "គីឡ": 4942,
      "តួនាទី": 4943,
      "50": 4944,
      "វណ្ណ": 4945,
      "េត្ដ": 4946,
      "ese": 4947,
      "ition": 4948,
      "ក្តៅក្រហាយ": 4949,
      "ចម្ង": 4950,
      "ហើយនិង": 4951,
      "រហ័ស": 4952,
      "ធៀប": 4953,
      "១៩៥": 4954,
      "យល់ព្រម": 4955,
      "ty": 4956,
      "ត្រាស់បង្គាប់": 4957,
      "ចង់បាន": 4958,
      "udd": 4959,
      "Al": 4960,
      "ប្រុង": 4961,
      "ាលី": 4962,
      "ទិន្ន": 4963,
      "រង្វាន់": 4964,
      "ខែក": 4965,
      "ម្យ៉ាងទៀត": 4966,
      "ខ្មោច": 4967,
      "ិ៍": 4968,
      "ath": 4969,
      "ច្ច័យ": 4970,
      "សេចក្តីវិនាស": 4971,
      "ជ្រុង": 4972,
      "សង្កេត": 4973,
      "នោ": 4974,
      "ឺត": 4975,
      "int": 4976,
      "ផ្លូវការ": 4977,
      "មោឃ": 4978,
      "ច្យុត": 4979,
      "មើលទៅ": 4980,
      "ទេសចរណ៍": 4981,
      "sa": 4982,
      "ហេ": 4983,
      "ព្យាបាល": 4984,
      "្នេយ៍": 4985,
      "hy": 4986,
      "may": 4987,
      "way": 4988,
      "ការបង្កើត": 4989,
      "ភាវៈ": 4990,
      "ត្ន": 4991,
      "ស្នេ": 4992,
      "ations": 4993,
      "មន្ទីរ": 4994,
      "កប់": 4995,
      "ឈូក": 4996,
      "៦០": 4997,
      "ទេសនា": 4998,
      "ory": 4999,
      "ទួល": 5000,
      "វឹង": 5001,
      "បោះពុ": 5002,
      "ណែនាំ": 5003,
      "កុម្មុយ": 5004,
      "ជំនុំ": 5005,
      "ទត": 5006,
      "ព្យូ": 5007,
      "ឆ្អឹង": 5008,
      "គណៈកម្ម": 5009,
      "រះ": 5010,
      "តក់": 5011,
      "សុចរិត": 5012,
      "សិរី": 5013,
      "សាងសង់": 5014,
      "សូម្បីតែ": 5015,
      "ចរិយៈ": 5016,
      "low": 5017,
      "ជាទូទៅ": 5018,
      "ង្សាវ": 5019,
      "ទីកន្លែង": 5020,
      "cur": 5021,
      "អប្ប": 5022,
      "ាកម្ម": 5023,
      "អ្នកផង": 5024,
      "ចម្ងាយ": 5025,
      "សេនាស": 5026,
      "ទិសេស": 5027,
      "ញ្ជ": 5028,
      "11": 5029,
      "និគ្រ": 5030,
      "ខី": 5031,
      "លឿង": 5032,
      "នៅសល់": 5033,
      "គ្គិយ": 5034,
      "ប្រស្នា": 5035,
      "រៀបរាប់": 5036,
      "សមត្ថភាព": 5037,
      "ប៉ែក": 5038,
      "ម៉ោង": 5039,
      "ចារី": 5040,
      "សងខាង": 5041,
      "វាង": 5042,
      "ចេតនា": 5043,
      "ឧបោសថ": 5044,
      "លេញ": 5045,
      "ates": 5046,
      "ថៈ": 5047,
      "បក់": 5048,
      "្បិត": 5049,
      "អាទិ": 5050,
      "ism": 5051,
      "ព្យញ្": 5052,
      "ស្ទាត់": 5053,
      "tern": 5054,
      "ឧបាសិកា": 5055,
      "ely": 5056,
      "កន្ទ": 5057,
      "លេច": 5058,
      "ការិយ": 5059,
      "កូនប្រុស": 5060,
      "ធីតា": 5061,
      "ធើ្វ": 5062,
      "ាត្យ": 5063,
      "កំបាំង": 5064,
      "ម្រឹ": 5065,
      "ទុក្ខវេទនា": 5066,
      "រុក្ខ": 5067,
      "សច្ចៈ": 5068,
      "គត់": 5069,
      "ដ្បិត": 5070,
      "បោរ": 5071,
      "ឆ្អែត": 5072,
      "ច្រក": 5073,
      "ទាម": 5074,
      "លោម": 5075,
      "មេឃ": 5076,
      "amp": 5077,
      "បាត់ដំបង": 5078,
      "សម្គាល់": 5079,
      "អន្លើ": 5080,
      "កណា": 5081,
      "ទឹកដោះ": 5082,
      "បន្ថយ": 5083,
      "ានិគម": 5084,
      "know": 5085,
      "សម្បន្ន": 5086,
      "ព្រំដែន": 5087,
      "ob": 5088,
      "ser": 5089,
      "ភី": 5090,
      "there": 5091,
      "ជ្ជៈ": 5092,
      "វ័ន": 5093,
      "សេសសល់": 5094,
      "ចង្ក": 5095,
      "ព្យញ្ជនៈ": 5096,
      "៣៥": 5097,
      "ភាពយន្ត": 5098,
      "ទុតិយ": 5099,
      "អាគ្នេយ៍": 5100,
      "ពង្សាវ": 5101,
      "មាយ": 5102,
      "ានី": 5103,
      "អម្បាល": 5104,
      "ទម្រង់": 5105,
      "កិត្ត": 5106,
      "ស្រវឹង": 5107,
      "their": 5108,
      "ម៉ាស៊ី": 5109,
      "តុលាការ": 5110,
      "មួន": 5111,
      "ទៅមក": 5112,
      "សហភាព": 5113,
      "ឃ្លាន": 5114,
      "្រ្ទិ": 5115,
      "ថែរ": 5116,
      "ផង់": 5117,
      "អម្ព": 5118,
      "បូក": 5119,
      "កាត": 5120,
      "ទត្ត": 5121,
      "ធម្មនុ": 5122,
      "some": 5123,
      "ver": 5124,
      "បណ្ណ": 5125,
      "វចី": 5126,
      "He": 5127,
      "និស្ត": 5128,
      "តម្រូវ": 5129,
      "ដាវ": 5130,
      "លឿន": 5131,
      "ond": 5132,
      "រីឯ": 5133,
      "នីតិ": 5134,
      "ational": 5135,
      "បោក": 5136,
      "ក្ដ": 5137,
      "សមាបត្តិ": 5138,
      "ឈ្លាសវៃ": 5139,
      "ហាក់ដូចជា": 5140,
      "ាស្រ្ត": 5141,
      "ស្សី": 5142,
      "ឆ្លងកាត់": 5143,
      "ភារៈ": 5144,
      "ពង្រីក": 5145,
      "lar": 5146,
      "ក៏ប៉ុន្តែ": 5147,
      "ស្ត្រ": 5148,
      "ទេវរាជ": 5149,
      "ពេញលេញ": 5150,
      "អាណានិគម": 5151,
      "សេនាសនៈ": 5152,
      "ការពិត": 5153,
      "ជាទីស្រឡាញ់": 5154,
      "យកចិត្ត": 5155,
      "សិក្ខា": 5156,
      "បបួល": 5157,
      "បង្ខំ": 5158,
      "ទទឹង": 5159,
      "កោត": 5160,
      "ពៅ": 5161,
      "ings": 5162,
      "ធម្មនុញ្ញ": 5163,
      "Leg": 5164,
      "ជាថ្មី": 5165,
      "សាមញ្ញ": 5166,
      "យៈ": 5167,
      "គ្រី": 5168,
      "ents": 5169,
      "ក្លៀវ": 5170,
      "used": 5171,
      "ម៉ាស៊ីន": 5172,
      "ដាស": 5173,
      "ការប្រើប្រាស់": 5174,
      "ទំនៀម": 5175,
      "ស្នាម": 5176,
      "ថែរក្សា": 5177,
      "ចុ": 5178,
      "សកល": 5179,
      "វិទូ": 5180,
      "រើស": 5181,
      "ឹប": 5182,
      "អះ": 5183,
      "ដំណាំ": 5184,
      "ងាយស្រួល": 5185,
      "សន្មត": 5186,
      "ម្រឹគ": 5187,
      "ទីប្រជុំ": 5188,
      "enc": 5189,
      "កំពស់": 5190,
      "ពិតប្រាកដ": 5191,
      "ជីវភាព": 5192,
      "ចង្អល់": 5193,
      "សន្យា": 5194,
      "17": 5195,
      "ទ្រាំ": 5196,
      "ឆ្ពោះ": 5197,
      "ក្លៀវក្លា": 5198,
      "អុង": 5199,
      "ានៈ": 5200,
      "អាណា": 5201,
      "សុភ": 5202,
      "វត្តន៍": 5203,
      "២២": 5204,
      "ព្រហ្មចារី": 5205,
      "ាធិបតី": 5206,
      "សុខភាព": 5207,
      "សាន្ត": 5208,
      "ច្រឡំ": 5209,
      "ហោង": 5210,
      "ក្រវ": 5211,
      "ចេញពី": 5212,
      "ខ្ពើ": 5213,
      "គោលដៅ": 5214,
      "ហោះ": 5215,
      "ព្រះឣ": 5216,
      "សាសន៍": 5217,
      "សន្តាន": 5218,
      "យូ": 5219,
      "អំឡុង": 5220,
      "ord": 5221,
      "បាស": 5222,
      "ឭក": 5223,
      "ធ្វើឡើង": 5224,
      "ព្រឹត្តិ": 5225,
      "irst": 5226,
      "ពិតជា": 5227,
      "ក្សេម": 5228,
      "Budd": 5229,
      "អូប": 5230,
      "any": 5231,
      "ប៉ា": 5232,
      "ស្តារ": 5233,
      "តាវ": 5234,
      "កំលាំង": 5235,
      "ទូទាំង": 5236,
      "មន្ទ": 5237,
      "មកហើយ": 5238,
      "បន្តួច": 5239,
      "ស្នង": 5240,
      "មនោ": 5241,
      "ទទេ": 5242,
      "អះអាង": 5243,
      "ិទ្ធ": 5244,
      "ត្តៈ": 5245,
      "ឆ្លើយតប": 5246,
      "16": 5247,
      "cr": 5248,
      "ល្ងង់": 5249,
      "បះ": 5250,
      "យតន": 5251,
      "ញ្ចាយតន": 5252,
      "កន្លងទៅ": 5253,
      "កីឡា": 5254,
      "តក់ស្លុត": 5255,
      "co": 5256,
      "ជូ": 5257,
      "ឥស្ស": 5258,
      "ឧទាយ": 5259,
      "ុរ": 5260,
      "ពួកព្រាហ្មណ៍": 5261,
      "ត្រួតត្រា": 5262,
      "ការិយាល័យ": 5263,
      "Ar": 5264,
      "au": 5265,
      "such": 5266,
      "ពព": 5267,
      "ព្រះត្រៃ": 5268,
      "កំន": 5269,
      "កំណាញ់": 5270,
      "ile": 5271,
      "បាណ": 5272,
      "own": 5273,
      "ើច": 5274,
      "ប្រវែង": 5275,
      "ដណ្តប់": 5276,
      "ឃ្មុំ": 5277,
      "សមាគម": 5278,
      "\",": 5279,
      "កស្សប": 5280,
      "មេសា": 5281,
      "អាមាត្យ": 5282,
      "ដប់": 5283,
      "ស្ថានភាព": 5284,
      "គីឡូម៉": 5285,
      "ដូង": 5286,
      "ធ្ម": 5287,
      "បិណ្ឌិក": 5288,
      "tw": 5289,
      "អន់": 5290,
      "ប្រទាន": 5291,
      "វិមោក្ខ": 5292,
      "endary": 5293,
      "បិត": 5294,
      "្ថ": 5295,
      "បង្អាប់": 5296,
      "បន្តិចបន្តួច": 5297,
      "អួត": 5298,
      "ស្មាន": 5299,
      "ស្រា": 5300,
      "សម្រាន្ត": 5301,
      "ង្វែក": 5302,
      "Elite": 5303,
      "វ្រ": 5304,
      "ព្រួយ": 5305,
      "អនុរុទ្ធ": 5306,
      "មហាក": 5307,
      "រន្ធ": 5308,
      "វ៉ា": 5309,
      "red": 5310,
      "ជ្ជន": 5311,
      "EvilLeg": 5312,
      "EvilElite": 5313,
      "គំនរ": 5314,
      "EvilLegendary": 5315,
      "ផូរ": 5316,
      "យមរាជ": 5317,
      "ិយៈ": 5318,
      "័ត្រ": 5319,
      "មានជ័យ": 5320,
      "លើកលែង": 5321,
      "គម្រោង": 5322,
      "ជម្ង": 5323,
      "iss": 5324,
      "រលាស់": 5325,
      "________": 5326,
      "តឹង": 5327,
      "មានអាសវៈ": 5328,
      "សាខា": 5329,
      "បន្ទោ": 5330,
      "សាមណ": 5331,
      "ត្នោត": 5332,
      "លង្វែក": 5333,
      "្រ្តី": 5334,
      "ព្រះសទ្ធម្ម": 5335,
      "old": 5336,
      "ជម្ងឺ": 5337,
      "ទៀតផង": 5338,
      "ស្នាដៃ": 5339,
      "ទម": 5340,
      "ន៏": 5341,
      "ក្ខិ": 5342,
      "ពីមុន": 5343,
      "វិចារ": 5344,
      "បាដិ": 5345,
      "ឥន្ទ្រិយ": 5346,
      "air": 5347,
      "ជេត": 5348,
      "អស្ស": 5349,
      "អយុ": 5350,
      "កម្មសិទ្ធិ": 5351,
      "លាវតី": 5352,
      "កើនឡើង": 5353,
      "កុម្មុយនិស្ត": 5354,
      "វ្រះ": 5355,
      "សោមនស្ស": 5356,
      "ក្របី": 5357,
      "សិកា": 5358,
      "----": 5359,
      "right": 5360,
      "ព្រឹទ្ធ": 5361,
      "ខ្សោយ": 5362,
      "ឃាត": 5363,
      "ន្តិ": 5364,
      "សង្គ្រោះ": 5365,
      "ប្រៀបធៀប": 5366,
      "ខេត្ដ": 5367,
      "ពួន": 5368,
      "ជើងទឹក": 5369,
      "ជ្ឈា": 5370,
      "ផូរផង់": 5371,
      "លៃ": 5372,
      "ចំការ": 5373,
      "កំពែង": 5374,
      "ពៀរ": 5375,
      "ឱន": 5376,
      "ន្ត្រី": 5377,
      "ធិរាជ": 5378,
      "ick": 5379,
      "អាណិត": 5380,
      "មរណកាល": 5381,
      "ជាំង": 5382,
      "ង៉": 5383,
      "ជួបជុំ": 5384,
      "more": 5385,
      "ធូលី": 5386,
      "ពារ": 5387,
      "ពហុ": 5388,
      "ឥន": 5389,
      "ិន្": 5390,
      "សាកសួរ": 5391,
      "នាទី": 5392,
      "សុគតិ": 5393,
      "reg": 5394,
      "oung": 5395,
      "តម្រេក": 5396,
      "ិត្ដិ": 5397,
      "ភវ": 5398,
      "ទំនុក": 5399,
      "យូរអង្វែង": 5400,
      "ct": 5401,
      "គន្ល": 5402,
      "សួស": 5403,
      "ឆ្នាំង": 5404,
      "ប្រជាជាតិ": 5405,
      "af": 5406,
      "min": 5407,
      "ys": 5408,
      "ឧស្សា": 5409,
      "និញ": 5410,
      "មុត": 5411,
      "សាលី": 5412,
      "po": 5413,
      "បរាជ": 5414,
      "បាល់": 5415,
      "១០០០០": 5416,
      "យកចិត្តទុកដាក់": 5417,
      "As": 5418,
      "៣៣": 5419,
      "ស្មើគ្នា": 5420,
      "ស្ថាបនា": 5421,
      "គំរប់": 5422,
      "ាទិ": 5423,
      "ខ្ជ": 5424,
      "been": 5425,
      "និរោធ": 5426,
      "យដ្ឋាន": 5427,
      "សន្ល": 5428,
      "ោហិត": 5429,
      "ធម្មជាត": 5430,
      "olog": 5431,
      "Ma": 5432,
      "ព៌": 5433,
      "ែត្រ": 5434,
      "ove": 5435,
      "តេជោ": 5436,
      "15": 5437,
      "សោម": 5438,
      "ប្រយុទ្ធ": 5439,
      "ដូចនេះ": 5440,
      "ហេតុផល": 5441,
      "សម្ង": 5442,
      "សម្រាក": 5443,
      "ហ្វូង": 5444,
      "ake": 5445,
      "ត្រពាំង": 5446,
      "បុញ្ញ": 5447,
      "ូតលាស់": 5448,
      "ទំលាយ": 5449,
      "ឧទ្ទិស": 5450,
      "សន្តិភាព": 5451,
      "មធ្យម": 5452,
      "សត្ត": 5453,
      "ីស": 5454,
      "ព្រះសម្មាសម្ពុទ្ធ": 5455,
      "ការបូជា": 5456,
      "កំពត": 5457,
      "សាលារ": 5458,
      "គន់": 5459,
      "ង្រ": 5460,
      "ខ្ជួន": 5461,
      "ប្រតិបត្តិការ": 5462,
      "អគ្គិ": 5463,
      "បញ្ញត្តិ": 5464,
      "បន្ទោបង់": 5465,
      "ប្រទូ": 5466,
      "ark": 5467,
      "និស្ស័យ": 5468,
      "ព្រល": 5469,
      "ខ្ជាប់ខ្ជួន": 5470,
      "ដាស់": 5471,
      "ថ្លៃថ្លា": 5472,
      "E1": 5473,
      "រាំ": 5474,
      "ឆ្កែ": 5475,
      "រឹតតែ": 5476,
      "ពីលើ": 5477,
      "ប្រកបរឿយ": 5478,
      "ages": 5479,
      "time": 5480,
      "បេះ": 5481,
      "គ្រិ": 5482,
      "into": 5483,
      "ខ្មាំង": 5484,
      "កងកម្លាំង": 5485,
      "ទំនើប": 5486,
      "try": 5487,
      "អនាថ": 5488,
      "សាលារៀន": 5489,
      "កើង": 5490,
      "ទណ្ឌ": 5491,
      "them": 5492,
      "សំពៅ": 5493,
      "អន្តរាយ": 5494,
      "ព្រះត្រៃបិដក": 5495,
      "វ្រះបាទ": 5496,
      "ហែ": 5497,
      "ុភាព": 5498,
      "ដោយឡែក": 5499,
      "សុវត្ថ": 5500,
      "រំពេច": 5501,
      "-----": 5502,
      "បរាជ័យ": 5503,
      "ទន្": 5504,
      "សក្ក": 5505,
      "ប្រទេសជាតិ": 5506,
      "គធ": 5507,
      "ហូប": 5508,
      "ប្រញាប់": 5509,
      "ត្តម": 5510,
      "វិនិ": 5511,
      "ខ្វល់": 5512,
      "ឆ្ក": 5513,
      "ធនធាន": 5514,
      "បល្ល": 5515,
      "សេចក្តីជ្រះថ្លា": 5516,
      "រួមគ្នា": 5517,
      "កម្រង": 5518,
      "សមគួរ": 5519,
      "ខ្មាស": 5520,
      "ការវាយ": 5521,
      "ការអប់រំ": 5522,
      "េរ៉ា": 5523,
      "ដកដង្ហើម": 5524,
      "មតិ": 5525,
      "រង្គ": 5526,
      "ខ្ចី": 5527,
      "col": 5528,
      "ious": 5529,
      "pt": 5530,
      "កង់": 5531,
      "បុរិ": 5532,
      "ឺម៉ង់": 5533,
      "សព្ទ": 5534,
      "ប្រណ": 5535,
      "សេចក្តីក្រោធ": 5536,
      "រុញ": 5537,
      "ភ្លេង": 5538,
      "first": 5539,
      "៩០": 5540,
      "រដ្ឋសភា": 5541,
      "១៩៨": 5542,
      "ស្មោះ": 5543,
      "ថែមទាំង": 5544,
      "រៀងរាល់": 5545,
      "ធូរ": 5546,
      "ធន់": 5547,
      "លោត": 5548,
      "ប្បដិ": 5549,
      "អភិជ្ឈា": 5550,
      "កូដ": 5551,
      "មន្ទិល": 5552,
      "ស្រោច": 5553,
      "រាជសម្បត្តិ": 5554,
      "សុទ្ធិ": 5555,
      "លំពាំង": 5556,
      "ថ្លែង": 5557,
      "who": 5558,
      "ញី": 5559,
      "ហើរ": 5560,
      "បិល": 5561,
      "វេស្សនៈ": 5562,
      "េវ": 5563,
      "ក្រឹត": 5564,
      "បុថុ": 5565,
      "មាត្រ": 5566,
      "បន្ដ": 5567,
      "ពិសោធន៍": 5568,
      "ទក្ខិ": 5569,
      "អែល": 5570,
      "ឲ្យដឹង": 5571,
      "ance": 5572,
      "ular": 5573,
      "France": 5574,
      "day": 5575,
      "តឿន": 5576,
      "ស្រុង": 5577,
      "អរិយសាវ័ក": 5578,
      "ព្រឹត្តិការណ៍": 5579,
      "បុថុជ្ជន": 5580,
      "ng": 5581,
      "ener": 5582,
      "ទុគ្គ": 5583,
      "many": 5584,
      "បែរជា": 5585,
      "សង្រ្គាម": 5586,
      "អគ្គិវេស្សនៈ": 5587,
      "សេចក្តីនុ៎ះ": 5588,
      "កំហុស": 5589,
      "យុវជន": 5590,
      "ឱង្ការ": 5591,
      "្តិ៍": 5592,
      "មិន្ទ": 5593,
      "អានុភាព": 5594,
      "សុវត្ថិ": 5595,
      "cess": 5596,
      "ផ្ទុយ": 5597,
      "សេចក្តីស្រឡាញ់": 5598,
      "uring": 5599,
      "ស្មើនឹង": 5600,
      "បាចិត្ដិ": 5601,
      "bir": 5602,
      "would": 5603,
      "ចំណែកឯ": 5604,
      "ទ្វាជៈ": 5605,
      "យី": 5606,
      "លង": 5607,
      "មេយ្យ": 5608,
      "ខុសគ្នា": 5609,
      "ពាក់ព័ន្ធ": 5610,
      "គោលបំណង": 5611,
      "កសិករ": 5612,
      "ព្យូទ័រ": 5613,
      "សែង": 5614,
      "អណ្": 5615,
      "អបាយ": 5616,
      "របាំ": 5617,
      "when": 5618,
      "នេយ្យ": 5619,
      "ថុល្ល": 5620,
      "យោបល់": 5621,
      "កែប្រែ": 5622,
      "មូលហេតុ": 5623,
      "ត្បិត": 5624,
      "ប្តេ": 5625,
      "ុតាង": 5626,
      "បុត្រី": 5627,
      "ខុសត្រូវ": 5628,
      "ause": 5629,
      "ញញ": 5630,
      "សេចក្តីពិត": 5631,
      "មហាជន": 5632,
      "ler": 5633,
      "ីក": 5634,
      "ង្កា": 5635,
      "ទស្សន៍": 5636,
      "វារៈ": 5637,
      "Ph": 5638,
      "វន": 5639,
      "បុល": 5640,
      "សម្ដែង": 5641,
      "រហូតមកដល់": 5642,
      "ទម្លាក់": 5643,
      "គូរ": 5644,
      "ឈម": 5645,
      "រឭក": 5646,
      "នាវា": 5647,
      "សាសនិក": 5648,
      "ិកៈ": 5649,
      "បញ្ចុះ": 5650,
      "high": 5651,
      "ចត": 5652,
      "សិណ": 5653,
      "rel": 5654,
      "ពោធិ៍សាត់": 5655,
      "II": 5656,
      "ten": 5657,
      "ទោ": 5658,
      "អូរ": 5659,
      "ទាំងស្រុង": 5660,
      "ទៅតាម": 5661,
      "អធិប្បាយ": 5662,
      "ប្តេជ្ញា": 5663,
      "ង្ខ": 5664,
      "ជ្រូក": 5665,
      "ហង្ស": 5666,
      "អនិ": 5667,
      "អ្នកប្រព្រឹត្ត": 5668,
      "ព្រឹក្ស": 5669,
      "rol": 5670,
      "ម្ល៉": 5671,
      "បះបោរ": 5672,
      "ដោត": 5673,
      "សង្ឃឹម": 5674,
      "រំដោះ": 5675,
      "កុំព្យូទ័រ": 5676,
      "សរសៃ": 5677,
      "គម្រប់": 5678,
      "ក្រអូប": 5679,
      "ពន់": 5680,
      "រារ": 5681,
      "ហាន់": 5682,
      "ឺង": 5683,
      "ញ្ញូ": 5684,
      "ចំណី": 5685,
      "កាមេរ៉ា": 5686,
      "ose": 5687,
      "?\"": 5688,
      "តតិយ": 5689,
      "៣៤": 5690,
      "ពិស្តារ": 5691,
      "រួមទាំង": 5692,
      "សេចក្ដីសុខ": 5693,
      "prov": 5694,
      "ល្បីល្ប": 5695,
      "វិបស្សនា": 5696,
      "៧០": 5697,
      "ការបាន": 5698,
      "ការប្រព្រឹត្តិ": 5699,
      "ច្ឆេទ": 5700,
      "ម៉ាឡ": 5701,
      "តមក": 5702,
      "ការអស់": 5703,
      "អ្នកនិពន្ធ": 5704,
      "ផ្សា": 5705,
      "ចំណាយ": 5706,
      "តាំងចិត្ត": 5707,
      "កាមគុណ": 5708,
      "បព្វជិត": 5709,
      "ស្នេហា": 5710,
      "45": 5711,
      "ពោលគឺ": 5712,
      "បង្កប់": 5713,
      "វង្គត": 5714,
      "ទុគ្គតិ": 5715,
      "លូតលាស់": 5716,
      "អ្នកតា": 5717,
      "ស្តែង": 5718,
      "សករាជ": 5719,
      "គីឡូម៉ែត្រ": 5720,
      "ឧត្ដ": 5721,
      "ឧបមេយ្យ": 5722,
      "ស្និទ្ធ": 5723,
      "ស័ក": 5724,
      "ខ្ចាយ": 5725,
      "ier": 5726,
      "ដាន": 5727,
      "សំយោជន": 5728,
      "សតវត្សរ៍": 5729,
      "អាល័យ": 5730,
      "សំន": 5731,
      "ស្ស៊ី": 5732,
      "រដ្ឋធម្មនុញ្ញ": 5733,
      "វិនិច្ឆ": 5734,
      "ជញ្ជាំង": 5735,
      "បាណាតិ": 5736,
      "សាមណេរ": 5737,
      "fr": 5738,
      "ផែនការ": 5739,
      "ពាក់កណ្តាល": 5740,
      "ជួនកាល": 5741,
      "ស្ថាប័ន": 5742,
      "Cam": 5743,
      "Dr": 5744,
      "him": 5745,
      "ខុ": 5746,
      "សង្ខេ": 5747,
      "បរិក្ខ": 5748,
      "០០០០": 5749,
      "ffect": 5750,
      "ភៀស": 5751,
      "សណ្ត": 5752,
      "សង្វ": 5753,
      "សម្បជ": 5754,
      "ចតុត្ថ": 5755,
      "ញ្រ": 5756,
      "ពាស": 5757,
      "ធ្យា": 5758,
      "ល្បីល្បាញ": 5759,
      "តន្ត្រី": 5760,
      "ទៈ": 5761,
      "ការកើតឡើង": 5762,
      "ខ្សឹក": 5763,
      "ខ្សួល": 5764,
      "ឧទ្ទេស": 5765,
      "language": 5766,
      "កាច": 5767,
      "មករា": 5768,
      "វិចិត្រ": 5769,
      "my": 5770,
      "្គ": 5771,
      "បុក": 5772,
      "ទិដ្ឋ": 5773,
      "use": 5774,
      "សេរីភាព": 5775,
      "្ថិយ": 5776,
      "កោរ": 5777,
      "អន្ត": 5778,
      "ឧសភា": 5779,
      "ors": 5780,
      "par": 5781,
      "័ណ្ឌ": 5782,
      "ភាគី": 5783,
      "ចម្លាក់": 5784,
      "ផ្ញ": 5785,
      "បន្ទប់": 5786,
      "បាបកម្ម": 5787,
      "បរិក្ខារ": 5788,
      "ភេស": 5789,
      "រតន": 5790,
      "៣៦": 5791,
      "ព្រះសម្មតិ": 5792,
      "ទីប": 5793,
      "ics": 5794,
      "តារា": 5795,
      "បាចិត្ដិយ": 5796,
      "lo": 5797,
      "យឺត": 5798,
      "ហ្មណ៍": 5799,
      "ros": 5800,
      "row": 5801,
      "ស្លាប": 5802,
      "ក្បត់": 5803,
      "អាពាធ": 5804,
      "បោះពុម្ព": 5805,
      "tain": 5806,
      "ូណ": 5807,
      "ស្គរ": 5808,
      "ស្អប់": 5809,
      "ពីក្រោយ": 5810,
      "វិភាគ": 5811,
      "អាជីវ": 5812,
      "arch": 5813,
      "ana": 5814,
      "ព្រះអង្គម្ចាស់": 5815,
      "សម្បជញ្ញៈ": 5816,
      "សិត": 5817,
      "មើលងាយ": 5818,
      "បា្រ": 5819,
      "នាគារ": 5820,
      "ភាវនា": 5821,
      "វិនិច្ឆ័យ": 5822,
      "ubl": 5823,
      "មុះ": 5824,
      "អសប្បុរស": 5825,
      "ជាមុន": 5826,
      "than": 5827,
      "off": 5828,
      "ធានា": 5829,
      "ល្បង": 5830,
      "អាបត្តិសង្ឃា": 5831,
      "ផ្ទៃដី": 5832,
      "វិចារៈ": 5833,
      "ដុង": 5834,
      "ុជ": 5835,
      "ប្រិយ": 5836,
      "ព្រះមាតា": 5837,
      "ព្រះបិតា": 5838,
      "ស័ព្ទ": 5839,
      "000": 5840,
      "បន្លឺ": 5841,
      "េរី": 5842,
      "និម្ម": 5843,
      "សិរ": 5844,
      "យោគៈ": 5845,
      "ក្បាច់": 5846,
      "យេ": 5847,
      "rem": 5848,
      "សារៈ": 5849,
      "មេគង្គ": 5850,
      "លើកឡើង": 5851,
      "ល្ងាច": 5852,
      "ទាំ": 5853,
      "ុឌ": 5854,
      "ព្រួញ": 5855,
      "ត្ថា": 5856,
      "ចូលក្នុង": 5857,
      "sub": 5858,
      "មជ្ឈមណ្ឌល": 5859,
      "ទុំ": 5860,
      "៣២": 5861,
      "ពិបាក": 5862,
      "បង្អស់": 5863,
      "គង": 5864,
      "ចាយ": 5865,
      "យកម្ម": 5866,
      "coun": 5867,
      "ភស្ត": 5868,
      "ព្រះឥ": 5869,
      "ស្ពាន": 5870,
      "រាស្ដ្រ": 5871,
      "វត្តមាន": 5872,
      "អាល្ល": 5873,
      "sign": 5874,
      "កញ្ញា": 5875,
      "លង់": 5876,
      "លន់": 5877,
      "ើល": 5878,
      "ត្រាត": 5879,
      "វិកា": 5880,
      "ចំបាំង": 5881,
      "សំយោជនៈ": 5882,
      "កុង": 5883,
      "ល្វ": 5884,
      "សៀមរាប": 5885,
      "comm": 5886,
      "ក្លាហាន": 5887,
      "រាន": 5888,
      "រមណី": 5889,
      "ស្បៀង": 5890,
      "ដៀង": 5891,
      "ហឫទ័យ": 5892,
      "នៅក្បែរ": 5893,
      "ម្នាង": 5894,
      "មេត្រី": 5895,
      "ពូកែ": 5896,
      "ផ្ទាល់ខ្លួន": 5897,
      "មែក": 5898,
      "បន្តបន្ទាប់": 5899,
      "យុត្តិ": 5900,
      "ចេន": 5901,
      "go": 5902,
      "ុស្ត": 5903,
      "មហាន": 5904,
      "will": 5905,
      "សុរា": 5906,
      "ព្រហ្មចរិយៈ": 5907,
      "ចក": 5908,
      "ញឹក": 5909,
      "្តច": 5910,
      "ឧបក្កិ": 5911,
      "លិច្ឆ": 5912,
      "អ៊ូ": 5913,
      "ពង្រ": 5914,
      "dif": 5915,
      "ពត៌មាន": 5916,
      "ព្រះគាថា": 5917,
      "ព្រះតេជ": 5918,
      "31": 5919,
      "ផ្ទាំង": 5920,
      "សេក្ខ": 5921,
      "then": 5922,
      "មនុស្សលោក": 5923,
      "ព្រះសុគត": 5924,
      "កេរ្តិ៍": 5925,
      "ប្រទូស្ត": 5926,
      "មាល": 5927,
      "នៅជិត": 5928,
      "ឧបរាជ": 5929,
      "ស្នាក់": 5930,
      "ប្រហែស": 5931,
      "fore": 5932,
      "ផែ": 5933,
      "ពពួក": 5934,
      "លង្កា": 5935,
      "សាស្ដ្រ": 5936,
      "សង្កិន": 5937,
      "ទសវត្ស": 5938,
      "កូរ៉េ": 5939,
      "ix": 5940,
      "ality": 5941,
      "ឧទ្ទាន": 5942,
      "ឧទាយិ": 5943,
      "សុន": 5944,
      "អាកិញ្ច": 5945,
      "ជម្រះ": 5946,
      "អង្វរ": 5947,
      "អណ្តាត": 5948,
      "អយុធ្យា": 5949,
      "៣៨": 5950,
      "ការរៀបចំ": 5951,
      "រូបរាង": 5952,
      "បណ្តាញ": 5953,
      "bet": 5954,
      "ុត្ត": 5955,
      "ក្អ": 5956,
      "អ្នកដឹកនាំ": 5957,
      "រិយោ": 5958,
      "ប្រាកដជា": 5959,
      "បកប្រែ": 5960,
      "អន្លង់": 5961,
      "ស្ទើរតែ": 5962,
      "កញ្ចក់": 5963,
      "គោះ": 5964,
      "តោង": 5965,
      "មល្ល": 5966,
      "ស្រដៀង": 5967,
      "ដូច្នោះហើយ": 5968,
      "ពាក់កណ្ដាល": 5969,
      "បម្រុង": 5970,
      "ជញ្ជូន": 5971,
      "ឆន្ទៈ": 5972,
      "ភ៌": 5973,
      "ប្រថា": 5974,
      "អរិយមគ្គ": 5975,
      "បច្ចេកទេស": 5976,
      "ក្រឡេក": 5977,
      "្រ្ទិយ": 5978,
      "អាល្លឺម៉ង់": 5979,
      "9E": 5980,
      "រុស្ស៊ី": 5981,
      "199": 5982,
      "ទៀងទាត់": 5983,
      "នាសម្": 5984,
      "water": 5985,
      "វច": 5986,
      "ern": 5987,
      "សំណង់": 5988,
      "គណកម្ម": 5989,
      "ext": 5990,
      "រង់ចាំ": 5991,
      "ចុន្ទ": 5992,
      "ke": 5993,
      "គាស់": 5994,
      "ឋិន": 5995,
      "មូ": 5996,
      "សេចក្តីរលត់": 5997,
      "only": 5998,
      "សេដ្ឋៈ": 5999,
      "ike": 6000,
      "ពេលនេះ": 6001,
      "ខ្សាច់": 6002,
      "វត្តី": 6003,
      "បដិបត្តិ": 6004,
      "ប្រជុំគ្នា": 6005,
      "រេវ": 6006,
      "ប្រថាប់": 6007,
      "ms": 6008,
      "ឆ្ម": 6009,
      "៣៩": 6010,
      "សេវ": 6011,
      "សម្លឹង": 6012,
      "ល្មើស": 6013,
      "ធនញ្ជ័យ": 6014,
      "rough": 6015,
      "កន្": 6016,
      "ខោន": 6017,
      "គភ៌": 6018,
      "ពត": 6019,
      "ឡាវ": 6020,
      "ការនិយាយ": 6021,
      "បង្វ": 6022,
      "ច្រមុះ": 6023,
      "ហ្គ": 6024,
      "ពណ៌នា": 6025,
      "ព្រះហឫទ័យ": 6026,
      "បុត្រា": 6027,
      "បង្កើន": 6028,
      "ខិតខំ": 6029,
      "ខ្ជិល": 6030,
      "ត្រាតែ": 6031,
      "ហកម្ម": 6032,
      "ហាវ": 6033,
      "បាចិត្ត": 6034,
      "អភិបាល": 6035,
      "que": 6036,
      "ផ្លាស់ប្ដូរ": 6037,
      "two": 6038,
      "ត្យ": 6039,
      "បត់": 6040,
      "រកស៊ី": 6041,
      "produc": 6042,
      "ទៅវិញទៅមក": 6043,
      "គន្លង": 6044,
      "ឃុន": 6045,
      "សុង": 6046,
      "ត្រលប់": 6047,
      "ការប្រកួត": 6048,
      "ទ្រូង": 6049,
      "ins": 6050,
      "វេណ": 6051,
      "សំពះ": 6052,
      "សន្ធិសញ្ញា": 6053,
      "ai": 6054,
      "ងូត": 6055,
      "ក្រី": 6056,
      "trans": 6057,
      "ific": 6058,
      "ផ្គត់": 6059,
      "អាល់": 6060,
      "ដំប": 6061,
      "បដិសេ": 6062,
      "គហបតិ": 6063,
      "ប្រជែង": 6064,
      "Con": 6065,
      "ការទទួល": 6066,
      "អ្នកកាន់": 6067,
      "ន្ដែ": 6068,
      "ផ្កាយ": 6069,
      "កូនស្រី": 6070,
      "ម្លប់": 6071,
      "ផលិតកម្ម": 6072,
      "spec": 6073,
      "ព្រះអរិយៈ": 6074,
      "សង្ខេប": 6075,
      "វិបុល": 6076,
      "ផ្ដាច់": 6077,
      "អាសន្ន": 6078,
      "តំកល់": 6079,
      "ement": 6080,
      "ផលិតផល": 6081,
      "សៅហ្មង": 6082,
      "អាកិញ្ចញ្ញា": 6083,
      "ទីស្រឡាញ់": 6084,
      "សេចក្តីសោក": 6085,
      "បំពាក់": 6086,
      "មុនពេល": 6087,
      "under": 6088,
      "យ៉ា": 6089,
      "គេហ": 6090,
      "ភ្នាក់": 6091,
      "ស្នំ": 6092,
      "ទាមទារ": 6093,
      "ខ្ពើម": 6094,
      "dr": 6095,
      "pol": 6096,
      "var": 6097,
      "ហៃ": 6098,
      "ក្រពើ": 6099,
      "ស្រេក": 6100,
      "លុកលុយ": 6101,
      "លាញ់": 6102,
      "ប៉ុន្ដែ": 6103,
      "មុខងារ": 6104,
      "ild": 6105,
      "កោណ": 6106,
      "អន្យ": 6107,
      "ផ្អែម": 6108,
      "រីកចម្រើន": 6109,
      "ញ្រហ្មណ៍": 6110,
      "្ស": 6111,
      "ពិពា": 6112,
      "សុក្ក": 6113,
      "សង្សារ": 6114,
      "ទេវបុត្ត": 6115,
      "ក្រោយពេល": 6116,
      "work": 6117,
      "Wh": 6118,
      "សួន": 6119,
      "ann": 6120,
      "លក្ខណ": 6121,
      "ល្ខោន": 6122,
      "បុរិស": 6123,
      "ci": 6124,
      "fin": 6125,
      "៣៧": 6126,
      "សិង្ហ": 6127,
      "សីមា": 6128,
      "មុននឹង": 6129,
      "ជំនួញ": 6130,
      "drying": 6131,
      "30": 6132,
      "មករ": 6133,
      "ទិវង្គត": 6134,
      "រៀបការ": 6135,
      "អរិយសច្ច": 6136,
      "ក្រមុំ": 6137,
      "វ៉ាន់": 6138,
      "vir": 6139,
      "ថិ": 6140,
      "ចំណុះ": 6141,
      "អាយតនៈ": 6142,
      "ស្ងួត": 6143,
      "យុគ": 6144,
      "និស្សិត": 6145,
      "Cambod": 6146,
      "ចេនឡា": 6147,
      "កម្ត": 6148,
      "ខ្វាយ": 6149,
      "ហី": 6150,
      "ឱប": 6151,
      "ឧបសម្បទា": 6152,
      "គុណវិសេស": 6153,
      "after": 6154,
      "ful": 6155,
      "រណ": 6156,
      "រាក់": 6157,
      "ព្រះជិន": 6158,
      "និម្មិត": 6159,
      "កម្តៅ": 6160,
      "អវិ": 6161,
      "ស្មា": 6162,
      "inter": 6163,
      "ប្រាណ": 6164,
      "បិសាច": 6165,
      "មោទ": 6166,
      "This": 6167,
      "land": 6168,
      "ោភ": 6169,
      "inv": 6170,
      "សម្រួល": 6171,
      "ភ្នាក់ងារ": 6172,
      "her": 6173,
      "កម្ពស់": 6174,
      "បោះបង់": 6175,
      "កាសែត": 6176,
      "nam": 6177,
      "ted": 6178,
      "ងើប": 6179,
      "ណាស្រ": 6180,
      "ធ្វេស": 6181,
      "សេចក្តីយល់ឃើញ": 6182,
      "ច្ចានៈ": 6183,
      "ited": 6184,
      "បញ្ឈប់": 6185,
      "ចរចា": 6186,
      "ចង្ហាន់": 6187,
      "នរោ": 6188,
      "Com": 6189,
      "វច្ឆ": 6190,
      "មន្រ្តី": 6191,
      "ប្លន់": 6192,
      "លើសលុប": 6193,
      "៨៤": 6194,
      "ក្មួយ": 6195,
      "ការី": 6196,
      "ូចិន": 6197,
      "ចំហ": 6198,
      "សម័យកាល": 6199,
      "add": 6200,
      "សោះឡើយ": 6201,
      "ឧស្សាហកម្ម": 6202,
      "(\"": 6203,
      "ឧទ្ធ": 6204,
      "overn": 6205,
      "ទីផ្សារ": 6206,
      "ជាមួយនិង": 6207,
      "ក្លែង": 6208,
      "គុណធម៌": 6209,
      "រីកចំរើន": 6210,
      "ទុតិយជ្ឈាន": 6211,
      "ទម្លាប់": 6212,
      "ពូក": 6213,
      "យក្ខ": 6214,
      "ដូចតទៅ": 6215,
      "លោកគ្រូ": 6216,
      "រាជកុមារ": 6217,
      "បណ្តោយ": 6218,
      "អភិសេក": 6219,
      "ung": 6220,
      "ប្រធានាធិបតី": 6221,
      "អវយ": 6222,
      "ខីណាស្រ": 6223,
      "ខីណាស្រព": 6224,
      "ភក់": 6225,
      "ោបាយ": 6226,
      "ការស្រាវជ្រាវ": 6227,
      "ចំឡែក": 6228,
      "សេចក្តីយល់": 6229,
      "ប៉ង": 6230,
      "បរិវេណ": 6231,
      "តំលៃ": 6232,
      "ជិតខាង": 6233,
      "ស្ម័": 6234,
      "where": 6235,
      "ទាយក": 6236,
      "ក៍": 6237,
      "រន្ទ": 6238,
      "ីយ៍": 6239,
      "៣១": 6240,
      "៤៥": 6241,
      "ប្រយ": 6242,
      "ព្រះមោគ្គល្លាន": 6243,
      "ថាៈ": 6244,
      "ខ្លាំងក្លា": 6245,
      "នេវ": 6246,
      "ភាជន": 6247,
      "ince": 6248,
      "gram": 6249,
      "វិទ្យាសាស្ត្រ": 6250,
      "ក្រីក្រ": 6251,
      "ញុះ": 6252,
      "វិច្ឆ": 6253,
      "ស្រម": 6254,
      "មុសាវ": 6255,
      "អម្ពដ្ឋ": 6256,
      "មុសាវាទ": 6257,
      "ug": 6258,
      "ក្ត្រ": 6259,
      "កំពង់សៀម": 6260,
      "ខ្វាក់": 6261,
      "មហាសេ": 6262,
      "2013": 6263,
      "គ្រិស្ត": 6264,
      "year": 6265,
      "ប្រទីប": 6266,
      "ព្រះច": 6267,
      "ឆ្លុះ": 6268,
      "ថ្នល់": 6269,
      "ឃ្លាំង": 6270,
      "ឥណ្ឌូចិន": 6271,
      "ខ្ចាត់": 6272,
      "ជយវម៌្ម": 6273,
      "រុក្ខជាតិ": 6274,
      "ភស្តុតាង": 6275,
      "វុធ": 6276,
      "អង្ក": 6277,
      "thing": 6278,
      "eng": 6279,
      "ople": 6280,
      "\")": 6281,
      "war": 6282,
      "ងាក": 6283,
      "វតី": 6284,
      "ហេតុការណ៍": 6285,
      "កង្វ": 6286,
      "កន្លះ": 6287,
      "ទំរង់": 6288,
      "Chin": 6289,
      "world": 6290,
      "ញង់": 6291,
      "កំហែង": 6292,
      "ហាមឃាត់": 6293,
      "នគ": 6294,
      "ក្រង": 6295,
      "អ្នកដឹង": 6296,
      "សេចក្តីរីករាយ": 6297,
      "គ្រោះថ្នាក់": 6298,
      "ប័": 6299,
      "សាហាវ": 6300,
      "ឈ្មួញ": 6301,
      "ឧបចារ": 6302,
      "មិថុ": 6303,
      "ហិរ": 6304,
      "័ត្ន": 6305,
      "សណ្ដាប់": 6306,
      "បព្វជ្ជា": 6307,
      "អាជ្ញាធរ": 6308,
      "ខ័ណ្ឌ": 6309,
      "្ហ": 6310,
      "ក្សិណ": 6311,
      "ចាកចេញ": 6312,
      "អធិដ្ឋាន": 6313,
      "មធ្យោបាយ": 6314,
      "ew": 6315,
      "ថែ": 6316,
      "រុក": 6317,
      "រលំ": 6318,
      "ស្ណុ": 6319,
      "ស្ទាប": 6320,
      "ធ្លុះ": 6321,
      "សំរោង": 6322,
      "រ៉ាវ": 6323,
      "ភាជន៍": 6324,
      "មិថុនា": 6325,
      "Dec": 6326,
      "ude": 6327,
      "ហោម": 6328,
      "ត្ថម្ភ": 6329,
      "ឧបសម្បន្ន": 6330,
      "about": 6331,
      "see": 6332,
      "លេខា": 6333,
      "dise": 6334,
      "អសុរ": 6335,
      "ឆ្កួត": 6336,
      "La": 6337,
      "could": 6338,
      "ស័ង្ខ": 6339,
      "ស្ម័គ្រ": 6340,
      "gan": 6341,
      "ទ្រុស្ត": 6342,
      "រូបិយ": 6343,
      "ម៉ាត់": 6344,
      "សក្ដិ": 6345,
      "នរោត្តម": 6346,
      ".)": 6347,
      "ve": 6348,
      "ស្ការ": 6349,
      "though": 6350,
      "នាថ": 6351,
      "rec": 6352,
      "កាត់បន្ថយ": 6353,
      "រក្សាទុក": 6354,
      "ឧទ័យ": 6355,
      "ដែត": 6356,
      "ទិកោសល": 6357,
      "stem": 6358,
      "អត្ថន័យ": 6359,
      "phil": 6360,
      "oyal": 6361,
      "ញុះញង់": 6362,
      "io": 6363,
      "ឧប្ប": 6364,
      "ប្រមុខ": 6365,
      "វិសាខា": 6366,
      "ជ្ជី": 6367,
      "សីហា": 6368,
      "នីវរ": 6369,
      "មហាប": 6370,
      "បដិវត្តន៍": 6371,
      "led": 6372,
      "លៀង": 6373,
      "ក្កុ": 6374,
      "ការអនុវត្ត": 6375,
      "រាគ": 6376,
      "បំបាត់": 6377,
      "សម្ផស្ស": 6378,
      "ury": 6379,
      "កាំបិត": 6380,
      "ទក្ខិណា": 6381,
      "ទែង": 6382,
      "លិខិត": 6383,
      "អនេក": 6384,
      "កក": 6385,
      "ពុះ": 6386,
      "លាត": 6387,
      "សើច": 6388,
      "ុណ": 6389,
      "ទៅឲ្យ": 6390,
      "ផ្គង់": 6391,
      "សេចក្តីប្រកាន់": 6392,
      "ផលប្រយោជន៍": 6393,
      "ហ៊ោ": 6394,
      "ដំណាក់កាល": 6395,
      "បដិសេធ": 6396,
      "អវយវៈ": 6397,
      "សសរ": 6398,
      "ច្បង": 6399,
      "ច្រាំង": 6400,
      "ឆ្ងល់": 6401,
      "ព្រះឣង្គ": 6402,
      "ចូវ": 6403,
      "ឆោត": 6404,
      "វក": 6405,
      "ព្រាន": 6406,
      "នាប": 6407,
      "ប្រសូត": 6408,
      "អាស្រម": 6409,
      "ឯកជន": 6410,
      "ប្ផ": 6411,
      "ដាស់តឿន": 6412,
      "កាក": 6413,
      "ដាល": 6414,
      "វិវេ": 6415,
      "សុរិយោ": 6416,
      "បំរុង": 6417,
      "បង្ក្រាប": 6418,
      "វេសាលី": 6419,
      "រៀនសូត្រ": 6420,
      "ខ្វល់ខ្វាយ": 6421,
      "មំ": 6422,
      "ឫស្សី": 6423,
      "គ្រែ": 6424,
      "សុវណ្ណ": 6425,
      "គោលនយោបាយ": 6426,
      "អាកាសាន": 6427,
      "ប្រារឰ": 6428,
      "dom": 6429,
      "យល់ដឹង": 6430,
      "ឋានសួគ៌": 6431,
      "includ": 6432,
      "កំនត់": 6433,
      "BC": 6434,
      "med": 6435,
      "ចាន": 6436,
      "ឆៀង": 6437,
      "ហោច": 6438,
      "ព្រះធម្ម": 6439,
      "ស្ព": 6440,
      "through": 6441,
      "ស្តាំ": 6442,
      "កម្មករ": 6443,
      "ទូលំ": 6444,
      "evelop": 6445,
      "grain": 6446,
      "ចំងាយ": 6447,
      "សេចក្តីពេញចិត្ត": 6448,
      "ប្បៈ": 6449,
      "ព្រហ្មញ្ញ": 6450,
      "ប្រទល់": 6451,
      "លោភៈ": 6452,
      "tur": 6453,
      "ខ្ញុំបាទ": 6454,
      "រំពឹង": 6455,
      "ក្កដា": 6456,
      "គធៈ": 6457,
      "Sh": 6458,
      "រតនៈ": 6459,
      "ហែល": 6460,
      "ស្ដា": 6461,
      "រាល់គ្នា": 6462,
      "ចេល": 6463,
      "វិបស្សី": 6464,
      "សន្លឹក": 6465,
      "ភៀសខ្លួន": 6466,
      "25": 6467,
      "មានះ": 6468,
      "សំបូរ": 6469,
      "នុច": 6470,
      "រស់នៅ": 6471,
      "រំលឹក": 6472,
      "កត់ត្រា": 6473,
      "ចម្បាំង": 6474,
      "lin": 6475,
      "ton": 6476,
      "ខាំ": 6477,
      "ជុល": 6478,
      "ជ្វា": 6479,
      "អាថ": 6480,
      "ាទោស": 6481,
      "reas": 6482,
      "ស្តាយ": 6483,
      "មាធិ": 6484,
      "រួមបញ្ចូល": 6485,
      "អារ៉": 6486,
      "ជួបប្រទះ": 6487,
      "១៩៧៥": 6488,
      "new": 6489,
      "បោក្ខ": 6490,
      "នាសម្ព័ន្ធ": 6491,
      "ពិពាហ៍": 6492,
      "num": 6493,
      "ក្រវាយ": 6494,
      "រឿងរ៉ាវ": 6495,
      "ដាច់ខាត": 6496,
      "ថៃ្ង": 6497,
      "control": 6498,
      "?”": 6499,
      "គុក": 6500,
      "មណី": 6501,
      "កំណាត់": 6502,
      "ខ្សែភាពយន្ត": 6503,
      "ween": 6504,
      "អតីតកាល": 6505,
      "សូវៀត": 6506,
      "វិចិកិ": 6507,
      "ស្ត្រា": 6508,
      "ក្រវល់": 6509,
      "ឧត្ដម": 6510,
      "ject": 6511,
      "ri": 6512,
      "្ក": 6513,
      "កំរិត": 6514,
      "រិយៈ": 6515,
      "ទ្យាន": 6516,
      "គោលការណ៍": 6517,
      "អ៊ីន": 6518,
      "ត្រួតពិនិត្យ": 6519,
      "ទ្រឹស្តី": 6520,
      "Buddha": 6521,
      "ផ្គត់ផ្គង់": 6522,
      "ទូលំទូលាយ": 6523,
      "Royal": 6524,
      "មស្ការ": 6525,
      "ឥដ្ឋ": 6526,
      "ការកំណត់": 6527,
      "ទ្រី": 6528,
      "ប្រកបរបរ": 6529,
      "បាល់ទាត់": 6530,
      "ជួស": 6531,
      "ថុន": 6532,
      "រៀល": 6533,
      "សុក": 6534,
      "អចេល": 6535,
      "ជាខ្លាំង": 6536,
      "បរិច្ឆេទ": 6537,
      "ទូរទស្សន៍": 6538,
      "ក្រឡាហោម": 6539,
      "ឝ្រី": 6540,
      "ហុង": 6541,
      "ត្តិង្ស": 6542,
      "ative": 6543,
      "agon": 6544,
      "ចង់ឲ្យ": 6545,
      "កម្រើក": 6546,
      "សន្ធឹក": 6547,
      "តាវត្តិង្ស": 6548,
      "call": 6549,
      "king": 6550,
      "ual": 6551,
      "ជួល": 6552,
      "មានយស": 6553,
      "ការគាំទ្រ": 6554,
      "សេ្តច": 6555,
      "បាតិ": 6556,
      "ប្រវត្តិសាស្រ្ត": 6557,
      "ub": 6558,
      "ឱហ្ន៎": 6559,
      "វិវាទ": 6560,
      "ature": 6561,
      "ចាប់អារម្មណ៍": 6562,
      "let": 6563,
      "what": 6564,
      "ជម្ល": 6565,
      "សឹម": 6566,
      "ាមិ": 6567,
      "ភាក្សា": 6568,
      "ស្សតិ": 6569,
      "ជាក់លាក់": 6570,
      "បុរោហិត": 6571,
      "ហ៍ពិពាហ៍": 6572,
      "ទិន្នា": 6573,
      "វិវេក": 6574,
      "ោដ្ឋ": 6575,
      "្នំ": 6576,
      "ចំនុច": 6577,
      "វិទ្យុ": 6578,
      "នាសញ្ញា": 6579,
      "និគ្រន្ថ": 6580,
      "វិច្ឆិកា": 6581,
      "vent": 6582,
      "ពែង": 6583,
      "អតិ": 6584,
      "៤៩": 6585,
      "ស្លាម": 6586,
      "អ៊ីត": 6587,
      "ផ្គង": 6588,
      "គង្គា": 6589,
      "govern": 6590,
      "like": 6591,
      "ឃោស": 6592,
      "ការផ្លាស់ប្តូរ": 6593,
      "ពិរ": 6594,
      "បសេន": 6595,
      "វ្នំ": 6596,
      "ក្រាស់": 6597,
      "ទេរ": 6598,
      "ប្រាង្គ": 6599,
      "ivers": 6600,
      "ទ្រឹស្ដី": 6601,
      "di": 6602,
      "ជក់": 6603,
      "ព្រះខ": 6604,
      "ស្គ": 6605,
      "ផ្ដាំ": 6606,
      "ម៉ាយ": 6607,
      "កម្រាល": 6608,
      "បច្ចេកវិទ្យា": 6609,
      "ជាលំដាប់": 6610,
      "សារព័ត៌មាន": 6611,
      "បូព៌": 6612,
      "ប្រាំមួយ": 6613,
      "ទារក": 6614,
      "ចំណេះដឹង": 6615,
      "រាំង": 6616,
      "សស្ត្រា": 6617,
      "អត្រា": 6618,
      "ម្ហូប": 6619,
      "ស្រលាញ់": 6620,
      "អធិរាជ": 6621,
      "នេសាទ": 6622,
      "peri": 6623,
      "អេឡ": 6624,
      "អាពាហ៍ពិពាហ៍": 6625,
      "between": 6626,
      "វិចិកិច្ឆា": 6627,
      "ណូ": 6628,
      "លាន់": 6629,
      "វង់": 6630,
      "ស្យ": 6631,
      "ពិភាក្សា": 6632,
      "ទិច": 6633,
      "សន្តោស": 6634,
      "បកស្រាយ": 6635,
      "ព្រលឹង": 6636,
      "during": 6637,
      "ជាម្ចាស់": 6638,
      "ទឹកចិត្ត": 6639,
      "បារម្ភ": 6640,
      "sec": 6641,
      "តូ": 6642,
      "ចារិក": 6643,
      "ជំរ": 6644,
      "រឹងមាំ": 6645,
      "ublic": 6646,
      "ta": 6647,
      "ដេរ": 6648,
      "ដំកល់": 6649,
      "ត្ថេ": 6650,
      "acc": 6651,
      "ife": 6652,
      "ស្អិត": 6653,
      "known": 6654,
      "say": 6655,
      "ព្រះវិ": 6656,
      "នៅនឹង": 6657,
      "អ្នកបរិបូណ៌": 6658,
      "រលាយ": 6659,
      "នេត្រ": 6660,
      "វិលត្រឡប់": 6661,
      "ស្អុយ": 6662,
      "អង្ករ": 6663,
      "70": 6664,
      "ស្ដែង": 6665,
      "បន្ទាត់": 6666,
      "ទន្សាយ": 6667,
      "disease": 6668,
      "ណេ": 6669,
      "៨៨": 6670,
      "្តា": 6671,
      "ព្រះអ": 6672,
      "១៨៦": 6673,
      "lit": 6674,
      "អាក់": 6675,
      "ព្រះភិក្ខុ": 6676,
      "វេយ្យ": 6677,
      "បេក្ខ": 6678,
      "ចូលទៅដល់": 6679,
      "ident": 6680,
      "ខ្នាត": 6681,
      "លិង្គ": 6682,
      "មុំ": 6683,
      "៊ាន": 6684,
      "័ន្ទ": 6685,
      "ព្រះឥន្ទ្រ": 6686,
      "ព្រះមហាក": 6687,
      "ត្រូ": 6688,
      "ចំណូល": 6689,
      "ិយស": 6690,
      "អភិវឌ្ឍន៍": 6691,
      "feed": 6692,
      "ប្រឡាក់": 6693,
      "កន្ទុយ": 6694,
      "ការស្វែងរក": 6695,
      "មុជ": 6696,
      "បាវ": 6697,
      "មីនា": 6698,
      "អនុញ្ញាតឲ្យ": 6699,
      "សម្ងំ": 6700,
      "បាចិត្តិយ": 6701,
      "\".": 6702,
      "ah": 6703,
      "ចម្": 6704,
      "វិញទៀត": 6705,
      "ព្រះពុទ្ធរូប": 6706,
      "ាធិករណ៍": 6707,
      "បណ្តុះ": 6708,
      "ស្ថានសួគ៌": 6709,
      "អញ្ជលី": 6710,
      "អរហត្តផល": 6711,
      "60": 6712,
      "Hit": 6713,
      "down": 6714,
      "ឡុ": 6715,
      "អៀន": 6716,
      "៤៤": 6717,
      "ស្បង់": 6718,
      "osis": 6719,
      "ution": 6720,
      "២០០០": 6721,
      "ធ្ងរ": 6722,
      "birds": 6723,
      "differ": 6724,
      "Pr": 6725,
      "bre": 6726,
      "cre": 6727,
      "រង្ក": 6728,
      "ហូត": 6729,
      "ស្កប់": 6730,
      "បរិវា": 6731,
      "មហាវិទ្យាល័យ": 6732,
      "សេចក្ដីប្រាថ្នា": 6733,
      "សមុដ្ឋាន": 6734,
      "ហិរញ្ញ": 6735,
      "ចំពាក់": 6736,
      "ឈ្មោល": 6737,
      "១៩០": 6738,
      "ជំរុញ": 6739,
      "តម្រង់": 6740,
      "ible": 6741,
      "សិង្ហបុរី": 6742,
      "អេឡិច": 6743,
      "uro": 6744,
      "ward": 6745,
      "បេស": 6746,
      "ក្ដិ": 6747,
      "ការស": 6748,
      "ash": 6749,
      "ឧបត្ថម្ភ": 6750,
      "បន្ទុក": 6751,
      "occur": 6752,
      "resp": 6753,
      "សម្មាសមាធិ": 6754,
      "អាមេរិច": 6755,
      "រង្វង់": 6756,
      "លើកលែងតែ": 6757,
      "ផ្ញើ": 6758,
      "រង្កៀស": 6759,
      "found": 6760,
      "គន្ថ": 6761,
      "ដួង": 6762,
      "ភិត": 6763,
      "បំភ្លឺ": 6764,
      "ប៉ុល": 6765,
      "ធម្មារម្មណ៍": 6766,
      "កោដិ": 6767,
      "people": 6768,
      "said": 6769,
      "អន្យតិ": 6770,
      "develop": 6771,
      "sk": 6772,
      "បទចម្រៀង": 6773,
      "ធ្ងន់ធ្ងរ": 6774,
      "dec": 6775,
      "យញ្ញ": 6776,
      "សេវា": 6777,
      "វេស": 6778,
      "អរិយធម៌": 6779,
      "ling": 6780,
      "less": 6781,
      "sch": 6782,
      "ដឺ": 6783,
      "ការកើត": 6784,
      "សមថៈ": 6785,
      "ម៉្ល": 6786,
      "ចងចាំ": 6787,
      "បង្រួម": 6788,
      "ចម្លែក": 6789,
      "ញញឹម": 6790,
      "tem": 6791,
      "បិន": 6792,
      "ហែង": 6793,
      "ការលះបង់": 6794,
      "ise": 6795,
      "សាសន": 6796,
      "បុរេ": 6797,
      "សោឡ": 6798,
      "មុសា": 6799,
      "these": 6800,
      "បង្ហាត់": 6801,
      "លើកកងទ័ព": 6802,
      "ដាក់ចុះ": 6803,
      "ច្រអូស": 6804,
      "ឥន្រ្ទិយ": 6805,
      "Hitler": 6806,
      "ខោ": 6807,
      "វៀង": 6808,
      "បុប្ផ": 6809,
      "ទុម": 6810,
      "រូបថត": 6811,
      "កុក្កុ": 6812,
      "សុខៈ": 6813,
      "មាត្យ": 6814,
      "បណ្ដោយ": 6815,
      "80": 6816,
      "son": 6817,
      "ទន្ទ": 6818,
      "អនុម": 6819,
      "owever": 6820,
      "អភិញ្ញា": 6821,
      "បុរៈ": 6822,
      "ខ្សឹកខ្សួល": 6823,
      "ក្អែក": 6824,
      "Pro": 6825,
      "mod": 6826,
      "កាលបរិច្ឆេទ": 6827,
      "acter": 6828,
      "ទំាង": 6829,
      "យុត្ត": 6830,
      "រំលើង": 6831,
      "២០០០០": 6832,
      "ព្រំប្រទល់": 6833,
      "Dragon": 6834,
      "hist": 6835,
      "វាន": 6836,
      "ជាញឹក": 6837,
      "ព្រះវរ": 6838,
      "ត្រៀម": 6839,
      "មួយវិញទៀត": 6840,
      "ទើបតែ": 6841,
      "នីយ": 6842,
      "ចំនែក": 6843,
      "ទំនិញ": 6844,
      "ហ្ស": 6845,
      "Sp": 6846,
      "mum": 6847,
      "កក្រ": 6848,
      "ថាម": 6849,
      "ក្រិ": 6850,
      "ating": 6851,
      "កម្លោះ": 6852,
      "ប្រទេច": 6853,
      "បណ្ណាល័យ": 6854,
      "រត": 6855,
      "រូង": 6856,
      "ការពោល": 6857,
      "ការប្រើ": 6858,
      "ហើយនិយាយ": 6859,
      "អាស៊ាន": 6860,
      "រលីង": 6861,
      "iver": 6862,
      "system": 6863,
      "fol": 6864,
      "ចរា": 6865,
      "ថៅ": 6866,
      "ប៊ី": 6867,
      "ព្រះគុណ": 6868,
      "ស្កូ": 6869,
      "read": 6870,
      "orn": 6871,
      "ជំពាក់": 6872,
      "គណិត": 6873,
      "ចោទប្រកាន់": 6874,
      "ខ្ទម": 6875,
      "made": 6876,
      "ម្ល៉េះ": 6877,
      "រារាំង": 6878,
      "លិច្ឆវី": 6879,
      "caus": 6880,
      "ple": 6881,
      "កកម្ម": 6882,
      "ធម្": 6883,
      "ំណ": 6884,
      "ការសម្លាប់": 6885,
      "ាក្រ": 6886,
      "សមាចារ": 6887,
      "ផ្ចង់": 6888,
      "ouse": 6889,
      "វត្ដិ": 6890,
      "អាកាសធាតុ": 6891,
      "ស្តីពី": 6892,
      "អនិច្ច": 6893,
      "Le": 6894,
      "គយ": 6895,
      "ឱវាទ": 6896,
      "សមរម្យ": 6897,
      "ដំណាល": 6898,
      "កែប": 6899,
      "ស៊ីន": 6900,
      "ម្ភៈ": 6901,
      "បថ": 6902,
      "លប": 6903,
      "ផ្ទុក": 6904,
      "ភារកិច្ច": 6905,
      "យុត្តិធម៌": 6906,
      "សោឡស": 6907,
      "Tb": 6908,
      "ច្ន": 6909,
      "រថយ": 6910,
      "៥៥": 6911,
      "ជាយ": 6912,
      "ការត្រាស់ដឹង": 6913,
      "ការកសាង": 6914,
      "atch": 6915,
      "ប្រាំពីរ": 6916,
      "century": 6917,
      "ហិរញ្ញវត្ថុ": 6918,
      "ចរាចរ": 6919,
      "vel": 6920,
      "នួន": 6921,
      "អរូប": 6922,
      "ស្កល់": 6923,
      "វិធាន": 6924,
      "រាស់": 6925,
      "សេចក្តីប្រតិបត្តិ": 6926,
      "អនុជ": 6927,
      "ប្រជារាស្ត្រ": 6928,
      "ស្អែក": 6929,
      "languages": 6930,
      "បណ្ដាលឲ្យ": 6931,
      "ថាមពល": 6932,
      "Tboung": 6933,
      "ពង្ស": 6934,
      "្យាណ": 6935,
      "ស្ប៉": 6936,
      "als": 6937,
      "បំពង់": 6938,
      "ម៉ូ": 6939,
      "បញ្ជាការ": 6940,
      "សោឡសកិច្ច": 6941,
      "sim": 6942,
      "uch": 6943,
      "ផោដ្ឋ": 6944,
      "យតនៈ": 6945,
      "វដ្": 6946,
      "វែក": 6947,
      "អក": 6948,
      "ម៉ុង": 6949,
      "ទុកចិត្ត": 6950,
      "រាជាណាចក្រ": 6951,
      "កប្បនេះ": 6952,
      "struc": 6953,
      "គំរូ": 6954,
      "ខ្ចាត់ខ្ចាយ": 6955,
      "អាថ៌": 6956,
      "ae": 6957,
      "pop": 6958,
      "រណ្ត": 6959,
      "រាស្រ្ត": 6960,
      "អ្នកដល់": 6961,
      "អាជា": 6962,
      "ដើមក": 6963,
      "ហ្មឺន": 6964,
      "សម្បូរ": 6965,
      "មិទ្ធ": 6966,
      "ធរណី": 6967,
      "serv": 6968,
      "សក្កទេវរាជ": 6969,
      "hel": 6970,
      "ចៃ": 6971,
      "ញែក": 6972,
      "មគធៈ": 6973,
      "ប្រវត្ដិ": 6974,
      "ម្មីក": 6975,
      "មេថុន": 6976,
      "ចំណង់": 6977,
      "ទាធិ": 6978,
      "ស្នាល": 6979,
      "oda": 6980,
      "បក្សពួក": 6981,
      "ខណៈពេល": 6982,
      "press": 6983,
      "អទិន្នា": 6984,
      "្វន": 6985,
      "អ្នកបួស": 6986,
      "ចាប់ខ្លួន": 6987,
      "ិយម": 6988,
      "ider": 6989,
      "ប្រាសចាកតម្រេក": 6990,
      "កល្យាណ": 6991,
      "Khmum": 6992,
      "ពាសពេញ": 6993,
      "កោល": 6994,
      "ព្រះកាយ": 6995,
      "ត្រអាល": 6996,
      "្យាង": 6997,
      "ការដឹង": 6998,
      "ស្រព": 6999,
      "inf": 7000,
      "ន្ទាទោស": 7001,
      "លំពែង": 7002,
      "លេប": 7003,
      "ហោរា": 7004,
      "Deg": 7005,
      "ទែន": 7006,
      "ឹន": 7007,
      "ព្រះវិបស្សី": 7008,
      "រាជញ្ញៈ": 7009,
      "ជ្រែក": 7010,
      "ជ្រុល": 7011,
      "again": 7012,
      "ចង្អុល": 7013,
      "ខត្តិយ": 7014,
      "សត់": 7015,
      "ព្រះនេត្រ": 7016,
      "ពោលទោស": 7017,
      "សង្កត់ចិត្ត": 7018,
      "common": 7019,
      "ជេន្ទ្រ": 7020,
      "សញ្ញោជន": 7021,
      "Move": 7022,
      "did": 7023,
      "set": 7024,
      "រក្ស": 7025,
      "មានន្ទ": 7026,
      "ម៉្យាង": 7027,
      "សម្រេចចិត្ត": 7028,
      "១៥០": 7029,
      "ists": 7030,
      "1445": 7031,
      "reatment": 7032,
      "government": 7033,
      "Degree": 7034,
      "កត្តា": 7035,
      "សំលេង": 7036,
      "ដំន": 7037,
      "បរិយ": 7038,
      "កម្ចាត់": 7039,
      "ural": 7040,
      "24": 7041,
      "Par": 7042,
      "រៀម": 7043,
      "ឣស់": 7044,
      "ale": 7045,
      "ities": 7046,
      "ican": 7047,
      "កន្លងមក": 7048,
      "ពឹងផ្អែក": 7049,
      "ាស្រ័យ": 7050,
      "អនុម័ត": 7051,
      "ទាធិករណ៍": 7052,
      "car": 7053,
      "gener": 7054,
      "well": 7055,
      "ដណ្ដ": 7056,
      "ដុល្ល": 7057,
      "តាក": 7058,
      "ហុក": 7059,
      "អក្ខ": 7060,
      "សេចក្តីប្រមាទ": 7061,
      "ស៊ើប": 7062,
      "ៀកបំពាក់": 7063,
      "sup": 7064,
      "អំណរ": 7065,
      "បេះដូង": 7066,
      "មហានាម": 7067,
      "្ធ": 7068,
      "សីហៈ": 7069,
      "ចិត្រ": 7070,
      "គាមណី": 7071,
      "រោយ": 7072,
      "ីយ": 7073,
      "៥៦": 7074,
      "កាលាម": 7075,
      "ប្រជាប្រិយ": 7076,
      "ព្រះភក្ត្រ": 7077,
      "ថីន": 7078,
      "គ្រងរាជ្យ": 7079,
      "កិត្តិយស": 7080,
      "វេយ្យាករ": 7081,
      "Mar": 7082,
      "ហូ": 7083,
      "សេចក្តីក្តៅក្រហាយ": 7084,
      "ute": 7085,
      "តុណ្ហ": 7086,
      "ប្រហារជីវិត": 7087,
      "គិរី": 7088,
      "ស្កប់ស្កល់": 7089,
      "ually": 7090,
      "៨៧": 7091,
      "ទីលំនៅ": 7092,
      "ទ្រាយ": 7093,
      "សុគត": 7094,
      "មហិ": 7095,
      "ទាក់ទាញ": 7096,
      "បឋមសិក្សា": 7097,
      "សន្ទនា": 7098,
      "គណៈកម្មាធិការ": 7099,
      "ការដាក់": 7100,
      "oul": 7101,
      "ប្រសព្វ": 7102,
      "ទេវបុត្រ": 7103,
      "បញ្ឆោត": 7104,
      "សម្បត្ដិ": 7105,
      "ត្រេកត្រអាល": 7106,
      "osop": 7107,
      "មជ្ឈិម": 7108,
      "ool": 7109,
      "សប្ត": 7110,
      "អណ្ដ": 7111,
      "ក្រៀម": 7112,
      "សាស្ដា": 7113,
      "ស្នើ": 7114,
      "und": 7115,
      "មរណភាព": 7116,
      "include": 7117,
      "រមណីយដ្ឋាន": 7118,
      "ធ្វេសប្រហែស": 7119,
      "បូព៌ា": 7120,
      "Amer": 7121,
      "Soda": 7122,
      "ade": 7123,
      "ures": 7124,
      "សួយ": 7125,
      "ការដឹកនាំ": 7126,
      "ក្ខេ": 7127,
      "មេធ": 7128,
      "សោយរាជ្យ": 7129,
      "១៩៧០": 7130,
      "Wright": 7131,
      "nor": 7132,
      "ោប": 7133,
      "ជាបន្តបន្ទាប់": 7134,
      "ស្ក": 7135,
      "វិញ្ញូ": 7136,
      "សេចក្តីឃើញ": 7137,
      "elf": 7138,
      "ហ្វ្រ": 7139,
      "បល្ល័": 7140,
      "អទិន្នាទាន": 7141,
      "bu": 7142,
      "ទេច": 7143,
      "អប្": 7144,
      "ជារៀងរាល់": 7145,
      "ប្រឈម": 7146,
      "ការរក្សា": 7147,
      "ស្កាត់": 7148,
      "លោកស្រី": 7149,
      "រួញ": 7150,
      "ពញាយ": 7151,
      "dep": 7152,
      "ម្ងន់": 7153,
      "រាបទាន": 7154,
      "បំណុល": 7155,
      "ឈ្លើយ": 7156,
      "សន្និដ្ឋាន": 7157,
      "ិន្ទ្រ": 7158,
      "Em": 7159,
      "Euro": 7160,
      "ស្ឋ": 7161,
      "ពីសំណាក់": 7162,
      "ខែមេសា": 7163,
      "វាយប្រហារ": 7164,
      "ឆ្ងាញ់": 7165,
      "តេជៈ": 7166,
      "ដណ្ដប់": 7167,
      "ណិត": 7168,
      "មច្ច": 7169,
      "៧៥": 7170,
      "ិនី": 7171,
      "គ្រុឌ": 7172,
      "សម្ភិ": 7173,
      "ភ្លុក": 7174,
      "ផ្ទឹម": 7175,
      "ផ្តោត": 7176,
      "គាមិ": 7177,
      "កត់សំគាល់": 7178,
      "because": 7179,
      "ាទិដ្ឋិ": 7180,
      "អាកាសានញ្ចាយតន": 7181,
      "កក្រើក": 7182,
      "ces": 7183,
      "ព្រាត់": 7184,
      "ស្រូត": 7185,
      "ពួកគាត់": 7186,
      "មហាសាល": 7187,
      "សណ្ឋាន": 7188,
      "ព្រឹទ្ធសភា": 7189,
      "រថយន្ត": 7190,
      "តុង": 7191,
      "ប្រស្ន": 7192,
      "ទេវទត្ត": 7193,
      "រ៉ូម": 7194,
      "Gr": 7195,
      "cer": 7196,
      "ឈី": 7197,
      "ធុត": 7198,
      "ពត់": 7199,
      "វោ": 7200,
      "ឡេ": 7201,
      "ឧស": 7202,
      "័ក្ស": 7203,
      "កំសាន្ត": 7204,
      "បើសិន": 7205,
      "agn": 7206,
      "វិញ្ញាណញ្ចាយតន": 7207,
      "បេក្ខជន": 7208,
      "get": 7209,
      "iam": 7210,
      "ium": 7211,
      "ចៀម": 7212,
      "ាគ": 7213,
      "៤៨": 7214,
      "្រ្ទ": 7215,
      "ព្រះឧប": 7216,
      "ស្រោម": 7217,
      "តែម្តង": 7218,
      "ឧបនិស្ស័យ": 7219,
      "ម្រាម": 7220,
      "ព្រាហ្មណ": 7221,
      "បែកបាក់": 7222,
      "seen": 7223,
      "called": 7224,
      "Be": 7225,
      "ទម្ងន់": 7226,
      "ឡារ": 7227,
      "បុត": 7228,
      "កាល់": 7229,
      "សុញ្ញ": 7230,
      "បុព្វេ": 7231,
      "bel": 7232,
      "cell": 7233,
      "gu": 7234,
      "ខាត់": 7235,
      "ដូ": 7236,
      "ព្រះមាន": 7237,
      "អង្គភាព": 7238,
      "សេចក្តីក្រវល់": 7239,
      "សុត្ត": 7240,
      "rop": 7241,
      "អនុត្ត": 7242,
      "គុណភាព": 7243,
      "ត្រីកោណ": 7244,
      "flu": 7245,
      "សន្តិសុខ": 7246,
      "ស្ទាត់ជំនាញ": 7247,
      "សញ្ញោជនៈ": 7248,
      "បេត": 7249,
      "រ្ថិយ": 7250,
      "ិច្ច": 7251,
      "វេឡុ": 7252,
      "ict": 7253,
      "កិច្ចព្រមព្រៀង": 7254,
      "លក្ខណ៍": 7255,
      "បន្ដិ": 7256,
      "ដឹកជញ្ជូន": 7257,
      "វិទ្យាស្ថាន": 7258,
      "ចលន": 7259,
      "ព្រះកស្សប": 7260,
      "follow": 7261,
      "good": 7262,
      "ness": 7263,
      "ភទ្": 7264,
      "ហុល": 7265,
      "១០០០": 7266,
      "ការគោរព": 7267,
      "កំពង់ចាម": 7268,
      "សាកសព": 7269,
      "ឈ្លាន": 7270,
      "អណ្តែត": 7271,
      "លទ្ធភាព": 7272,
      "mar": 7273,
      "បាម": 7274,
      "វស្ស": 7275,
      "ប្រសិទ្ធ": 7276,
      "អ្នកលេង": 7277,
      "ជ្រោយ": 7278,
      "បីដូចជា": 7279,
      "រាប់បញ្ចូល": 7280,
      "ទំលាប់": 7281,
      "២០០៧": 7282,
      "ទសវត្សរ៍": 7283,
      "ធុតង្គ": 7284,
      "បន្ដិច": 7285,
      "ភាយ": 7286,
      "សៃ": 7287,
      "ឡាន": 7288,
      "ិង": 7289,
      "ព្រឺ": 7290,
      "សាខ": 7291,
      "ប្រក់": 7292,
      "ឧបដ្ឋ": 7293,
      "ទំនាប": 7294,
      "នាយកងទ័ព": 7295,
      "ស្រេកឃ្លាន": 7296,
      "តង": 7297,
      "មាទ": 7298,
      "ឡូ": 7299,
      "ជីព": 7300,
      "chang": 7301,
      "ចរណៈ": 7302,
      "បន្សល់": 7303,
      "មិគ": 7304,
      "សង្កត់សង្កិន": 7305,
      "ection": 7306,
      "ផ្ទៃក្នុង": 7307,
      "កសាងឡើង": 7308,
      "ផ្អើល": 7309,
      "១៩៧៩": 7310,
      "ប្រយ័ត្ន": 7311,
      "Min": 7312,
      "ិរ": 7313,
      "៣០០": 7314,
      "ជារឿយ": 7315,
      "ព្រង": 7316,
      "around": 7317,
      "ទិក": 7318,
      "ants": 7319,
      "អន្ទោល": 7320,
      "very": 7321,
      "ឥស្សរៈ": 7322,
      "Tr": 7323,
      "bas": 7324,
      "ចូ": 7325,
      "ល័": 7326,
      "៥៧": 7327,
      "ជ្រក": 7328,
      "ility": 7329,
      "ានុភាព": 7330,
      "ជួសជុល": 7331,
      "Viet": 7332,
      "cap": 7333,
      "ដារ": 7334,
      "វន្ត": 7335,
      "អភ័យ": 7336,
      "សេចក្តីលំបាក": 7337,
      "ណ្ហើយ": 7338,
      "ily": 7339,
      "អនុមោទ": 7340,
      "ឆ្លាក់": 7341,
      "ជាក់ស្ដែង": 7342,
      "កន្លងបង់": 7343,
      "រំលែក": 7344,
      "ology": 7345,
      "signs": 7346,
      "ស្ប៉ាញ": 7347,
      "lish": 7348,
      "អន្ដ": 7349,
      "ម្ពិ": 7350,
      "ខ្លៅ": 7351,
      "គោត្រ": 7352,
      "head": 7353,
      "សម្មាទិដ្ឋិ": 7354,
      "ស័ក្តិ": 7355,
      "ទិន្នន័យ": 7356,
      "សង្កេតឃើញ": 7357,
      "ឈ្លានពាន": 7358,
      "light": 7359,
      "កែង": 7360,
      "ដ៍": 7361,
      "ទង្គ": 7362,
      "ហ្វី": 7363,
      "សំស្": 7364,
      "ល្បឿន": 7365,
      "ត្បូងឃ្មុំ": 7366,
      "ress": 7367,
      "ប្រទក្សិណ": 7368,
      "ខូចខាត": 7369,
      "ខ្ជិលច្រអូស": 7370,
      "ប័ណ្ណ": 7371,
      "ំណើត": 7372,
      "ble": 7373,
      "លម្": 7374,
      "ុក្ខ": 7375,
      "៤៦": 7376,
      "ព្រះសូត្រ": 7377,
      "កិល": 7378,
      "ខែឧសភា": 7379,
      "សីលធម៌": 7380,
      "បង្រួប": 7381,
      "ធ្មេញ": 7382,
      "ដើមកំណើត": 7383,
      "៨៩": 7384,
      "អ្នកក្រុង": 7385,
      "នុយ": 7386,
      "អ៊ែរ": 7387,
      "ក្រមការ": 7388,
      "ស្ថាបត្យ": 7389,
      "ized": 7390,
      "ស្និទ្ធស្នាល": 7391,
      "oh": 7392,
      "ឆាក": 7393,
      "ភណ្ឌ": 7394,
      "អនាគ": 7395,
      "ខ្លោច": 7396,
      "ផ្ដ": 7397,
      "ប៉ាន់": 7398,
      "ពុល": 7399,
      "ព្រហ្មចារ្យ": 7400,
      "import": 7401,
      "សោតាបត្តិ": 7402,
      "ចម្លង": 7403,
      "iki": 7404,
      "អនុញ្ញាតឱ្យ": 7405,
      "Ger": 7406,
      "ction": 7407,
      "៥២": 7408,
      "ស្រដី": 7409,
      "ស្សូត": 7410,
      "នាំឱ្យ": 7411,
      "ower": 7412,
      "cept": 7413,
      "ទង់ជ័យ": 7414,
      "ទាសី": 7415,
      "គណៈកម្មការ": 7416,
      "បង្រួបបង្រួម": 7417,
      "ចក្ក": 7418,
      "ាយុ": 7419,
      "ព្រះមេត្តា": 7420,
      "ការចិញ្ចឹម": 7421,
      "ស្ទង់": 7422,
      "គំរាម": 7423,
      "ស្ដាយ": 7424,
      "សំឡឹង": 7425,
      "ហ្វា": 7426,
      "ឈ្នួល": 7427,
      "ប្រជានុ": 7428,
      "រួបរួម": 7429,
      "ថែទាំ": 7430,
      "az": 7431,
      "ជូរ": 7432,
      "បត្ដិ": 7433,
      "៤៧": 7434,
      "អ្នកភូមិ": 7435,
      "ជ្រប់": 7436,
      "ក្សាន្ត": 7437,
      "ដិល": 7438,
      "being": 7439,
      "ារីស": 7440,
      "អេស្ប៉ាញ": 7441,
      "លំអៀង": 7442,
      "សួស្តី": 7443,
      "del": 7444,
      "long": 7445,
      "ting": 7446,
      "writ": 7447,
      "គិល": 7448,
      "ព្រះអនុរុទ្ធ": 7449,
      "របួស": 7450,
      "ពុត": 7451,
      "ប្រកែក": 7452,
      "តាំងតែ": 7453,
      "ស្លាក": 7454,
      "អាមិស": 7455,
      "ជាតក": 7456,
      "ទប់ទល់": 7457,
      "philosop": 7458,
      "For": 7459,
      "por": 7460,
      "នាក": 7461,
      "វៀ": 7462,
      "និច": 7463,
      "រាវ": 7464,
      "three": 7465,
      "គ្គី": 7466,
      "កើតទុក្ខ": 7467,
      "oup": 7468,
      "សម្បក": 7469,
      "សូរ្យ": 7470,
      "រាយការណ៍": 7471,
      "ធ្នាប់": 7472,
      "មន្ទីរពេទ្យ": 7473,
      "ប្រណម្យ": 7474,
      "ជម្លោះ": 7475,
      "bro": 7476,
      "នីយ៍": 7477,
      "ផ្ទុះ": 7478,
      "ប្ដឹង": 7479,
      "program": 7480,
      "ចម្បង": 7481,
      "ខ្វះខាត": 7482,
      "អ៊ីតាលី": 7483,
      "អ្នកស្តាប់": 7484,
      "គ្រូប": 7485,
      "ខែតុលា": 7486,
      "leg": 7487,
      "ជំទាស់": 7488,
      "លក្ខខណ្ឌ": 7489,
      "ភ័យខ្លាច": 7490,
      "ចរាចរណ៍": 7491,
      "men": 7492,
      "ron": 7493,
      "ចត់": 7494,
      "ចង្វ": 7495,
      "ទៀន": 7496,
      "សក្តិ": 7497,
      "អចលន": 7498,
      "ទ្ឋ": 7499,
      "ប៉ារីស": 7500,
      "outh": 7501,
      "ត្បាញ": 7502,
      "ខុសពី": 7503,
      "សាស្ត្រាចារ្យ": 7504,
      "អង្គរវត្ត": 7505,
      "កុលបុត្ត": 7506,
      "ically": 7507,
      "សន្ទុះ": 7508,
      "ច្រឡូក": 7509,
      "hum": 7510,
      "អជាត": 7511,
      "ុញ": 7512,
      "ព្រះរាម": 7513,
      "ការបង្រៀន": 7514,
      "អញ្ច": 7515,
      "ខែមករា": 7516,
      "ច្រាន": 7517,
      "កាត់ផ្តាច់": 7518,
      "emb": 7519,
      "ត្រៃវិជ្ជា": 7520,
      "ខ្លឹមសារ": 7521,
      "បាដិហារ": 7522,
      "រាក់ទាក់": 7523,
      "sur": 7524,
      "ព្រះព្រហ្ម": 7525,
      "ការចេញ": 7526,
      "ក្រដាស": 7527,
      "កោសិកា": 7528,
      "បុព្វបុរស": 7529,
      "សម្លឹងមើល": 7530,
      "40": 7531,
      "ចាំង": 7532,
      "តាន": 7533,
      "៩៦": 7534,
      "ការឃើញ": 7535,
      "អ្នកទទួល": 7536,
      "សមាស": 7537,
      "ជ្រាល": 7538,
      "ជីដូន": 7539,
      "ោងទ្វារ": 7540,
      "រយះ": 7541,
      "ប្រាសចាករា": 7542,
      "egg": 7543,
      "រចនាសម្ព័ន្ធ": 7544,
      "រន្ធត់": 7545,
      "fa": 7546,
      "got": 7547,
      "mort": 7548,
      "ឃ្វ": 7549,
      "តោន": 7550,
      "ទ៌": 7551,
      "បោស": 7552,
      "លឺ": 7553,
      "លួង": 7554,
      "ហឹ": 7555,
      "ការចូលរួម": 7556,
      "អាត្មាភាព": 7557,
      "ទំលាក់": 7558,
      "ជ្ជមាន": 7559,
      "Chan": 7560,
      "ការអភិវឌ្ឍន៍": 7561,
      "អនុមោទនា": 7562,
      "Wor": 7563,
      "ងឿង": 7564,
      "ូនេស៊ី": 7565,
      "សារធាតុ": 7566,
      "នាំចេញ": 7567,
      "ចុះឈ្មោះ": 7568,
      "ផ្តិល": 7569,
      "ក្សត្រី": 7570,
      "សម្មុ": 7571,
      "បណ្តេញ": 7572,
      "ធ្យាយ": 7573,
      "There": 7574,
      "ព្រះតេជគុណ": 7575,
      "different": 7576,
      "មិទ្ធៈ": 7577,
      "GT": 7578,
      "tle": 7579,
      "ឧទ្យាន": 7580,
      "ប្រាំង": 7581,
      "ស្រួច": 7582,
      "ទើបនឹង": 7583,
      "បន្ទូល": 7584,
      "ពលៈ": 7585,
      "រាជាធិ": 7586,
      "បទល្មើស": 7587,
      "amin": 7588,
      "សញ្ញាណ": 7589,
      "បង្អុរ": 7590,
      "អង់អាច": 7591,
      "ស្លៀកពាក់": 7592,
      "ស្បើយ": 7593,
      "present": 7594,
      "អណ្ដែត": 7595,
      "ចម្ការ": 7596,
      "វេយ្យាករណ៍": 7597,
      "Europe": 7598,
      "met": 7599,
      "ption": 7600,
      "ពណ៍": 7601,
      "ភោ": 7602,
      "ឧទាន": 7603,
      "ានុស": 7604,
      "ការបះបោរ": 7605,
      "ច្ចេក": 7606,
      "ស្តុក": 7607,
      "គុន": 7608,
      "គមនា": 7609,
      "ោធាតុ": 7610,
      "២០០៨": 7611,
      "And": 7612,
      "Or": 7613,
      "ជណ្ត": 7614,
      "ាយណ៍": 7615,
      "ការពិចារណា": 7616,
      "អ្នកគ្រប់គ្រង": 7617,
      "ម្ប៉ា": 7618,
      "បុគ្គលិក": 7619,
      "ករណៈ": 7620,
      "char": 7621,
      "ច្របល់": 7622,
      "អធិការ": 7623,
      "សន្ថ": 7624,
      "មាយា": 7625,
      "ជណ្តើរ": 7626,
      "តាង": 7627,
      "ឱរស": 7628,
      "ារាម": 7629,
      "ទឹកភ្នែក": 7630,
      "អាសូរ": 7631,
      "ឈឺចាប់": 7632,
      "អន្ទាក់": 7633,
      "នីវរណៈ": 7634,
      "ជាញឹកញាប់": 7635,
      "សម្មុខា": 7636,
      "fam": 7637,
      "ជែក": 7638,
      "អប": 7639,
      "ីន": 7640,
      "ោះអាសន្ន": 7641,
      "ស្ញ": 7642,
      "សំណាញ់": 7643,
      "ចំណាត់": 7644,
      "stand": 7645,
      "អាវាស": 7646,
      "even": 7647,
      "ក្លេ": 7648,
      "ជាក់ស្តែង": 7649,
      "អគ្គីស": 7650,
      "និគ្រោធ": 7651,
      "ទីប្រជុំជន": 7652,
      "including": 7653,
      "បល្ល័ង្ក": 7654,
      "លម្អ": 7655,
      "និទ៌": 7656,
      "តែម្ដង": 7657,
      "ប៉ូឡ": 7658,
      "ម៉េច": 7659,
      "ស្ថេរ": 7660,
      "ស្នើស": 7661,
      "បដិសន្ធិ": 7662,
      "រំលាយ": 7663,
      "សាមគ្គី": 7664,
      "សំស្ក្រឹត": 7665,
      "និទ៌ុក្ខ": 7666,
      "Kim": 7667,
      "ញាំ": 7668,
      "ាសៈ": 7669,
      "ក្រេ": 7670,
      "វិសុទ្ធិ": 7671,
      "តិស្ស": 7672,
      "គួរឱ្យ": 7673,
      "ព្យាធិ": 7674,
      "ផ្លុំ": 7675,
      "ក្រុមគ្រួសារ": 7676,
      "ស៊ីវិល": 7677,
      "body": 7678,
      "សត្តុ": 7679,
      "វេសន៍": 7680,
      "ច្រឡូកច្រឡំ": 7681,
      "ស្នើសុំ": 7682,
      "aw": 7683,
      "ced": 7684,
      "kh": 7685,
      "កាន": 7686,
      "តូរ": 7687,
      "រូ": 7688,
      "ឦសាន": 7689,
      "៥៩": 7690,
      "ក្អម": 7691,
      "ទេញ": 7692,
      "ទ្រង់ទ្រាយ": 7693,
      "ons": 7694,
      "stud": 7695,
      "ប៉ុនប៉ង": 7696,
      "រោងចក្រ": 7697,
      "ឥទ្ធិបាទ": 7698,
      "ចោមរោម": 7699,
      "ក្រឹត្យ": 7700,
      "តាកែវ": 7701,
      "Vietnam": 7702,
      "ទង្គិច": 7703,
      "life": 7704,
      "ដុស": 7705,
      "បច្ឆ": 7706,
      "វជ្ជី": 7707,
      "អចិន": 7708,
      "ព្រះន": 7709,
      "ថាង": 7710,
      "រិក": 7711,
      "សម្ភារៈ": 7712,
      "ឧបធិ": 7713,
      "ផលវិបាក": 7714,
      "រលក": 7715,
      "បាទី": 7716,
      "កុមារី": 7717,
      "គណនា": 7718,
      "ស្របក់": 7719,
      "ហត្ថលេខា": 7720,
      "Khmer": 7721,
      "larg": 7722,
      "ពង្រឹង": 7723,
      "អគ្គីសនី": 7724,
      "ចេក": 7725,
      "ចួប": 7726,
      "ឌិត": 7727,
      "សគ្គ": 7728,
      "សនៈ": 7729,
      "ហាប": 7730,
      "ឡ្": 7731,
      "ាធ": 7732,
      "ទុរ": 7733,
      "សម្ផ": 7734,
      "ឥណ្ឌូនេស៊ី": 7735,
      "ទាយាទ": 7736,
      "អំណោយ": 7737,
      "depend": 7738,
      "Han": 7739,
      "back": 7740,
      "កេស": 7741,
      "៊ូ": 7742,
      "រាហុល": 7743,
      "តិ្ត": 7744,
      "ច្ចៈ": 7745,
      "សង្គាយ": 7746,
      "come": 7747,
      "ហោតិ": 7748,
      "សារៈសំខាន់": 7749,
      "ក្រិដ្ឋ": 7750,
      "រណ្តៅ": 7751,
      "ធឺ": 7752,
      "ពាយ": 7753,
      "ព្រះសិ": 7754,
      "ព្រះពរ": 7755,
      "ព្រះសិទ្ធ": 7756,
      "ពីមុខ": 7757,
      "ប៉ូល": 7758,
      "ជ័យជំនះ": 7759,
      "បដិមា": 7760,
      "ទន្ទឹម": 7761,
      "New": 7762,
      "Ro": 7763,
      "We": 7764,
      "cour": 7765,
      "ពាម": 7766,
      "ឝ្វ": 7767,
      "ារៈ": 7768,
      "អ្នកប្រាថ្នា": 7769,
      "សេចក្តីស្ងប់ស្ងាត់": 7770,
      "ណ្ណា": 7771,
      "កុណ្ឌ": 7772,
      "សម្លាញ់": 7773,
      "វាសនា": 7774,
      "ត្ថេរាបទាន": 7775,
      "នុយក្លេ": 7776,
      "cle": 7777,
      "ient": 7778,
      "ឣំ": 7779,
      "ំាង": 7780,
      "ត្រសក់": 7781,
      "និធិ": 7782,
      "សមរ": 7783,
      "សម្តី": 7784,
      "អាជីវៈ": 7785,
      "ធ្វើបាប": 7786,
      "ពិល": 7787,
      "ភាគរយ": 7788,
      "ប្បដ្ឋាន": 7789,
      "លុះត្រាតែ": 7790,
      "ica": 7791,
      "ូតូ": 7792,
      "កំណែ": 7793,
      "រលួយ": 7794,
      "ចែករំលែក": 7795,
      "ធ្យាស្រ័យ": 7796,
      "ភេសជ្ជ": 7797,
      "De": 7798,
      "Di": 7799,
      "Nor": 7800,
      "ll": 7801,
      "ផ្ចិត": 7802,
      "ជ្រលក់": 7803,
      "រកាយ": 7804,
      "level": 7805,
      "ដំបូក": 7806,
      "should": 7807,
      "consider": 7808,
      "អាជីវកម្ម": 7809,
      "ស្បៀងអាហារ": 7810,
      "ធម្មក": 7811,
      "ងឿងឆ្ងល់": 7812,
      "Treatment": 7813,
      "បួង": 7814,
      "ាត្រ": 7815,
      "ប្រគំ": 7816,
      "និគន្ថ": 7817,
      "ស្អាង": 7818,
      "អាការៈ": 7819,
      "ចម៍": 7820,
      "ពេលណា": 7821,
      "ឧបការៈ": 7822,
      "ជ្ឈាយ": 7823,
      "197": 7824,
      "ឆាប់រហ័ស": 7825,
      "ស្មោះត្រង់": 7826,
      "Is": 7827,
      "កោង": 7828,
      "គ្ន": 7829,
      "ចាន់": 7830,
      "ចូឡ": 7831,
      "ដុន": 7832,
      "ត្ម": 7833,
      "ភៈ": 7834,
      "វុ": 7835,
      "ហង": 7836,
      "ឡោម": 7837,
      "៦៦": 7838,
      "ការតស៊ូ": 7839,
      "ការរស់នៅ": 7840,
      "ភិក្ខ": 7841,
      "បុណ្ណ": 7842,
      "វិការៈ": 7843,
      "សិការៈ": 7844,
      "ata": 7845,
      "ព្យា": 7846,
      "ប្រសប់": 7847,
      "រំភ": 7848,
      "ដាំដុះ": 7849,
      "ស្ដីពី": 7850,
      "ធុញ": 7851,
      "ច្នៃ": 7852,
      "សមរភូមិ": 7853,
      "តស្ស": 7854,
      "ធនាគារ": 7855,
      "ភ្ជ": 7856,
      "អម្រ": 7857,
      "ជាក្សត្រ": 7858,
      "ជាធម្មជាតិ": 7859,
      "អាចម៍": 7860,
      "ប៉ឹង": 7861,
      "ស្តង់": 7862,
      "កាឡ": 7863,
      "រហូតមក": 7864,
      "តំណាល": 7865,
      "កំពង់ផែ": 7866,
      "នេក្ខ": 7867,
      "har": 7868,
      "tal": 7869,
      "កុក": 7870,
      "កណ្ឌ": 7871,
      "ឧក្រិដ្ឋ": 7872,
      "ោតិ": 7873,
      "៩៥": 7874,
      "ព្រះខីណាស្រព": 7875,
      "ការសរសេរ": 7876,
      "នាការ": 7877,
      "order": 7878,
      "បរិច្ច": 7879,
      "សុខចិត្ត": 7880,
      "ខែមិថុនា": 7881,
      "ភូមិសាស្ត្រ": 7882,
      "បន្លែ": 7883,
      "ធុរៈ": 7884,
      "ឆ្នេរសមុទ្រ": 7885,
      "period": 7886,
      "គមនាគមន៍": 7887,
      "ft": 7888,
      "ច័ន្ទ": 7889,
      "អទុក្ខ": 7890,
      "៨៥": 7891,
      "ការចាប់": 7892,
      "ភ្លាត់": 7893,
      "ខែវិច្ឆិកា": 7894,
      "សាស្ត្រា": 7895,
      "រិះគន់": 7896,
      "បុព្វណ្ហ": 7897,
      "ផ្គុំ": 7898,
      "សឹងតែ": 7899,
      "ទស្សនវិជ្ជា": 7900,
      "កិន": 7901,
      "ចរិយា": 7902,
      "ឈូង": 7903,
      "ត្វ": 7904,
      "សឺន": 7905,
      "ពួកញាតិ": 7906,
      "ទំព": 7907,
      "ស្នែង": 7908,
      "ពោរ": 7909,
      "រងគ្រោះ": 7910,
      "លក់ដូរ": 7911,
      "ហិណ្ឌ": 7912,
      "កប្បទី": 7913,
      "២៥០": 7914,
      "បុប្ផា": 7915,
      "អទុក្ខម": 7916,
      "lay": 7917,
      "she": 7918,
      "ជជែក": 7919,
      "ការចម្រើន": 7920,
      "ស្គម": 7921,
      "សមាប": 7922,
      "ពួកស្រី": 7923,
      "បពិត្រជា": 7924,
      "អនុប": 7925,
      "មិត្តភាព": 7926,
      "បេសកកម្ម": 7927,
      "មច្ចុ": 7928,
      "ស្ថាបត្យកម្ម": 7929,
      "gre": 7930,
      "ថវិកា": 7931,
      "បក្ខ": 7932,
      "ភគ": 7933,
      "មូស": 7934,
      "រណី": 7935,
      "គ្រាំ": 7936,
      "សាគរ": 7937,
      "ដ្ឋី": 7938,
      "esp": 7939,
      "កាយកម្ម": 7940,
      "ស្វាង": 7941,
      "កាមេ": 7942,
      "ថេរវា": 7943,
      "ការប្រយុទ្ធ": 7944,
      "័តន៍": 7945,
      "nowiki": 7946,
      "ទាស់ទែង": 7947,
      "ភិតភ័យ": 7948,
      "បាង": 7949,
      "ផុស": 7950,
      "អល": 7951,
      "៦៧": 7952,
      "៩៤": 7953,
      "ភិសេក": 7954,
      "សុប្ប": 7955,
      "ព្វៈ": 7956,
      "សារាយ": 7957,
      "often": 7958,
      "ama": 7959,
      "អង្អែល": 7960,
      "________________": 7961,
      "បោះបង់ចោល": 7962,
      "ថៅកែ": 7963,
      "cult": 7964,
      "soc": 7965,
      "តៃ": 7966,
      "ពំ": 7967,
      "ចំលង": 7968,
      "គួរអោយ": 7969,
      "ស៊ីសុវត្ថិ": 7970,
      "ពន្លា": 7971,
      "គំនូរ": 7972,
      "សេវាកម្ម": 7973,
      "នុយក្លេអ៊ែរ": 7974,
      "Re": 7975,
      "loc": 7976,
      "pers": 7977,
      "public": 7978,
      "ភង្គ": 7979,
      "រូត": 7980,
      "សែ": 7981,
      "ប្រសិទ្ធិ": 7982,
      "ព្រះសណ្ដាប់": 7983,
      "ការតាំង": 7984,
      "ការលើក": 7985,
      "ការប្រព្រឹត្ត": 7986,
      "ទីទៃ": 7987,
      "គ្រឹ": 7988,
      "បរិស្ថាន": 7989,
      "ទឹកភ្លៀង": 7990,
      "ចៅក្រម": 7991,
      "សុខសប្បាយ": 7992,
      "តំរ": 7993,
      "នីយកម្ម": 7994,
      "ជំហាន": 7995,
      "គីរ": 7996,
      "វេស្សន្តរ": 7997,
      "ថ្វីបើ": 7998,
      "bur": 7999,
      "gl": 8000,
      "sm": 8001,
      "រែក": 8002,
      "អធ្យាស្រ័យ": 8003,
      "ព្រះសាស្ដា": 8004,
      "ក្រប": 8005,
      "ink": 8006,
      "ផ្ទេរ": 8007,
      "លោកុត្ត": 8008,
      "រូបវិទ្យា": 8009,
      "ស្ទាក់": 8010,
      "កំពង់ធំ": 8011,
      "រើក": 8012,
      "ព្រះខ័ន": 8013,
      "AD": 8014,
      "just": 8015,
      "ខាទ": 8016,
      "ណាន": 8017,
      "រាល": 8018,
      "រុំ": 8019,
      "បង្ហូរ": 8020,
      "នាំចូល": 8021,
      "ចំណាំ": 8022,
      "ពេញនិយម": 8023,
      "បន្ទាយមានជ័យ": 8024,
      "ចំណងជើង": 8025,
      "គំនុំ": 8026,
      "ស្រស់ស្អាត": 8027,
      "អាទិទេព": 8028,
      "ព្រះឥសូរ": 8029,
      "commun": 8030,
      "26": 8031,
      "28": 8032,
      "But": 8033,
      "On": 8034,
      "du": 8035,
      "ក្ង": 8036,
      "ាកាស": 8037,
      "សុភាសិត": 8038,
      "requ": 8039,
      "មូលនិធិ": 8040,
      "ការធ្វើដំណើរ": 8041,
      "ប្រាំបី": 8042,
      "ពារាណ": 8043,
      "សុវត្ថិភាព": 8044,
      "important": 8045,
      "same": 8046,
      "ស្ឋាន": 8047,
      "្មរ": 8048,
      "កំណា": 8049,
      "ភ្នាល់": 8050,
      "រលាប": 8051,
      "បញ្ចាំង": 8052,
      "បង្កាច់": 8053,
      "ក្មេក": 8054,
      "ខែកញ្ញា": 8055,
      "ដុង្គ": 8056,
      "equ": 8057,
      "ning": 8058,
      "ណាត់": 8059,
      "ភក្ដី": 8060,
      "សឡាយ": 8061,
      "អាប់": 8062,
      "ការព្យាយាម": 8063,
      "ទ្រាន់": 8064,
      "សាធុ": 8065,
      "ដំណេក": 8066,
      "stit": 8067,
      "ជំរះ": 8068,
      "ឯកភាព": 8069,
      "unt": 8070,
      "រំលោភ": 8071,
      "វាទៈ": 8072,
      "អក្សរសាស្ត្រ": 8073,
      "គេហដ្ឋាន": 8074,
      "ម៉្លេះ": 8075,
      "គិលាន": 8076,
      "កំណាព្យ": 8077,
      "mil": 8078,
      "sto": 8079,
      "ចាប": 8080,
      "ជួញ": 8081,
      "តវ៉ា": 8082,
      "រុស": 8083,
      "ហង់": 8084,
      "ព្រះរៀម": 8085,
      "ទុន": 8086,
      "anda": 8087,
      "បណ្តើរ": 8088,
      "195": 8089,
      "both": 8090,
      "ទំនៀមទម្លាប់": 8091,
      "ពពែ": 8092,
      "ដំបៅ": 8093,
      "ភ្ជួរ": 8094,
      "បរិច្ចាគ": 8095,
      "23": 8096,
      "En": 8097,
      "los": 8098,
      "side": 8099,
      "គូស": 8100,
      "ទឹម": 8101,
      "បត្ត": 8102,
      "ឥន្ទ": 8103,
      "៦៤": 8104,
      "ត្រាំ": 8105,
      "ចំណាស់": 8106,
      "សេចក្តីប្រឹងប្រែង": 8107,
      "សុបិន": 8108,
      "ប្បញ្ញ": 8109,
      "ជ្រៃ": 8110,
      "កងទុក្ខ": 8111,
      "ផ្លូវចិត្ត": 8112,
      "បដិសម្ភិ": 8113,
      "aking": 8114,
      "ហិរិ": 8115,
      "ទំនងជា": 8116,
      "ពានរង្វាន់": 8117,
      "អាឡេវ": 8118,
      "ដណ្តើម": 8119,
      "មាលា": 8120,
      "ចំណាត់ថ្នាក់": 8121,
      "BR": 8122,
      "However": 8123,
      "ឆា": 8124,
      "៦៥": 8125,
      "ជាជាង": 8126,
      "ប្រណី": 8127,
      "ការបែងចែក": 8128,
      "សមស្រប": 8129,
      "សំវរ": 8130,
      "ទទួលខុសត្រូវ": 8131,
      "ជីតា": 8132,
      "ចំណាប់": 8133,
      "បន្ទោស": 8134,
      "lead": 8135,
      "ស្លា": 8136,
      "while": 8137,
      "app": 8138,
      "ចែកចេញ": 8139,
      "បង្អង់": 8140,
      "ខ្ទើយ": 8141,
      "ក្ដៅក្រហាយ": 8142,
      "វិនិបាត": 8143,
      "ម៉ាឡេស៊ី": 8144,
      "ឧប្បល": 8145,
      "វិធានការ": 8146,
      "dist": 8147,
      "tone": 8148,
      "ទេយ្យ": 8149,
      "itis": 8150,
      "វេរ": 8151,
      "និយាយប្រាប់": 8152,
      "រួចផុត": 8153,
      "កុសលកម្ម": 8154,
      "ស៊ឺ": 8155,
      "តូចចិត្ត": 8156,
      "អញ្ចឹង": 8157,
      "ឡ្ហៈ": 8158,
      ".-": 8159,
      "mat": 8160,
      "ការថត": 8161,
      "ites": 8162,
      "តាំងមាំ": 8163,
      "ខែធ្នូ": 8164,
      "olv": 8165,
      "ពោធិញ្ញាណ": 8166,
      "រំលង": 8167,
      "ឈ្លោះ": 8168,
      "រចនាបថ": 8169,
      "design": 8170,
      "សុគតិសួគ៌": 8171,
      "ទិដ្ឋភាព": 8172,
      "ភទ្ទ": 8173,
      "ព្រះយ": 8174,
      "ការសង្រួម": 8175,
      "មេរ": 8176,
      "កុន": 8177,
      "ស៊ុន": 8178,
      "appe": 8179,
      "ected": 8180,
      "លេខាធិការ": 8181,
      "សតិប្បដ្ឋាន": 8182,
      "ស្លៀកដណ្តប់": 8183,
      "កត់សម្គាល់": 8184,
      "polit": 8185,
      "Cambodia": 8186,
      "years": 8187,
      "second": 8188,
      "ឧបដ្ឋាក": 8189,
      "main": 8190,
      "ចណ្ឌ": 8191,
      "សញ្": 8192,
      "ស្រៈ": 8193,
      "ជនី": 8194,
      "ច្ចយ": 8195,
      "វេណី": 8196,
      "រាជាជា": 8197,
      "សន្ធឹង": 8198,
      "lesions": 8199,
      "អាល់ប៊": 8200,
      "បណ្តុះបណ្តាល": 8201,
      "jor": 8202,
      "កន្ត": 8203,
      "ជម្ន": 8204,
      "ញៀន": 8205,
      "ថេរី": 8206,
      "បែន": 8207,
      "អាំង": 8208,
      "ឧដុង្គ": 8209,
      "និស": 8210,
      "ការវិ": 8211,
      "ices": 8212,
      "ខែ្មរ": 8213,
      "ជាប់ជំពាក់": 8214,
      "ចៀសវាង": 8215,
      "គណកម្មាធិការ": 8216,
      "វច្ឆៈ": 8217,
      "បន្សល់ទុក": 8218,
      "ព្រងើយ": 8219,
      "រំភើប": 8220,
      "ធុញទ្រាន់": 8221,
      "ចែវ": 8222,
      "ដម្ប": 8223,
      "ឋា": 8224,
      "្រៃ": 8225,
      "ារ៉": 8226,
      "ការផ្សព្វផ្សាយ": 8227,
      "របង": 8228,
      "កំរើក": 8229,
      "អំបិល": 8230,
      "សិលា": 8231,
      "ene": 8232,
      "អធិបតី": 8233,
      "ift": 8234,
      "វ៉ាំង": 8235,
      "បណ្ដាញ": 8236,
      "grap": 8237,
      "ស្រមោល": 8238,
      "មហាបពិត្រ": 8239,
      ".”": 8240,
      "Ac": 8241,
      "Col": 8242,
      "So": 8243,
      "iel": 8244,
      "power": 8245,
      "ral": 8246,
      "wall": 8247,
      "នព្វ": 8248,
      "យិត": 8249,
      "វល្ល": 8250,
      "សៈ": 8251,
      "ប្រយោគ": 8252,
      "និព្វ": 8253,
      "សមហេតុ": 8254,
      "ines": 8255,
      "សេនីយ៍": 8256,
      "ister": 8257,
      "រំខាន": 8258,
      "នាយកង": 8259,
      "សហព័ន្ធ": 8260,
      "បរពល": 8261,
      "ព្ភ": 8262,
      "ចង្កា": 8263,
      "apan": 8264,
      "process": 8265,
      "result": 8266,
      "បូរី": 8267,
      "កង្វល់": 8268,
      "ដុល្លារ": 8269,
      "ខ្លោចផ្សា": 8270,
      "ជ្ឈាយ៍": 8271,
      "ហិណ្ឌូ": 8272,
      "ជម្នះ": 8273,
      "==": 8274,
      "liv": 8275,
      "រក្ខ": 8276,
      "ឫក": 8277,
      "៦៩": 8278,
      "ការបង្ហាញ": 8279,
      "ការផ្តល់": 8280,
      "ស្កា": 8281,
      "ស្រទ": 8282,
      "ោកម្ម": 8283,
      "influ": 8284,
      "នាច": 8285,
      "ដ្ឋិត": 8286,
      "ars": 8287,
      "បរិវារ": 8288,
      "ជ្រុះ": 8289,
      "ស្បូវ": 8290,
      "every": 8291,
      "ព្រះហស្ត": 8292,
      "ក្សេមក្សាន្ត": 8293,
      "បច្ឆិម": 8294,
      "បួងសួង": 8295,
      "100": 8296,
      "Pre": 8297,
      "hu": 8298,
      "ទូង": 8299,
      "រឹប": 8300,
      "របាយ": 8301,
      "ហេតុទាស់": 8302,
      "ាវី": 8303,
      "ស្ដារ": 8304,
      "សង្ខត": 8305,
      "Ind": 8306,
      "uck": 8307,
      "ជឿជាក់": 8308,
      "ially": 8309,
      "បន្លំ": 8310,
      "អណ្តូង": 8311,
      "ផ្សែង": 8312,
      "ការវាយប្រហារ": 8313,
      "សុនក្ខ": 8314,
      "ព្រះវិស្ណុ": 8315,
      "ដំនើរ": 8316,
      "អនុបសម្បន្ន": 8317,
      "miss": 8318,
      "គុយ": 8319,
      "ឃៈ": 8320,
      "ឃ្ន": 8321,
      "វាស់": 8322,
      "ឹស": 8323,
      "និមួយ": 8324,
      "និបាត": 8325,
      "គ្រោង": 8326,
      "ខាងក្រោយមក": 8327,
      "organ": 8328,
      "សតាំង": 8329,
      "ច្បារ": 8330,
      "ចុះហត្ថលេខា": 8331,
      "ព្រះបច្ចេក": 8332,
      "ម៉ៅ": 8333,
      "គំរោង": 8334,
      "ថ្នាក់ដឹកនាំ": 8335,
      "តម្រូវការ": 8336,
      "អង្កេត": 8337,
      "នគរប": 8338,
      "អារ៉ាប់": 8339,
      "កាមេសុ": 8340,
      "Pal": 8341,
      "Su": 8342,
      "ner": 8343,
      "ខួរ": 8344,
      "ឈា": 8345,
      "បស្": 8346,
      "រណ្ដ": 8347,
      "ិប": 8348,
      "េគ": 8349,
      "ប្រឌិត": 8350,
      "ការប្រពៃ": 8351,
      "ូលិក": 8352,
      "អាជ្ញ": 8353,
      "តិណ": 8354,
      "សិប": 8355,
      "គោត្ត": 8356,
      "trad": 8357,
      "ចាគៈ": 8358,
      "ជម្រៅ": 8359,
      "លាភសក្ការៈ": 8360,
      "ដរាបណា": 8361,
      "Chinese": 8362,
      "American": 8363,
      "27": 8364,
      "250": 8365,
      "Japan": 8366,
      "ភ្វ": 8367,
      "អង្គុល": 8368,
      "ផ្កាប់": 8369,
      "ដំឡ": 8370,
      "បរិសុទ្ធិ": 8371,
      "ល្អាង": 8372,
      "បញ្ចក្ខន្ធ": 8373,
      "ហ្វឹក": 8374,
      "សក្កាយ": 8375,
      "ជ្រើសតាំង": 8376,
      "អាក់អន់": 8377,
      "ប្រស្នាន": 8378,
      "បើសិនជា": 8379,
      "effect": 8380,
      "ដិត": 8381,
      "វះ": 8382,
      "អាជីព": 8383,
      "anal": 8384,
      "កាលត": 8385,
      "along": 8386,
      "ទុដ្ឋ": 8387,
      "បូស្កូ": 8388,
      "មុខវិជ្ជា": 8389,
      "ស្ថានីយ៍": 8390,
      "ប្រៀបផ្ទឹម": 8391,
      "mean": 8392,
      "contin": 8393,
      "អសុរកាយ": 8394,
      "cor": 8395,
      "house": 8396,
      "កក់": 8397,
      "ដម្កល់": 8398,
      "យារ": 8399,
      "អិន": 8400,
      "ប្រាម": 8401,
      "អ្នកបោះឆ្នោត": 8402,
      "តិក": 8403,
      "កំសត់": 8404,
      "ខាងស្តាំ": 8405,
      "សីតុណ្ហ": 8406,
      "រួចស្រេច": 8407,
      "ព្រៃឈើ": 8408,
      "បាតិកៈ": 8409,
      "២០០៦": 8410,
      "ទ្ទៈ": 8411,
      "សមត្ថកិច្ច": 8412,
      "typ": 8413,
      "កោតក្រែង": 8414,
      "និញ្វន": 8415,
      "ភេសជ្ជៈ": 8416,
      "គណកម្មការ": 8417,
      "giv": 8418,
      "iev": 8419,
      "oth": 8420,
      "កង្": 8421,
      "ជល់": 8422,
      "សញ្ជ័យ": 8423,
      "ិនេយ្យ": 8424,
      "និវា": 8425,
      "ការការពារ": 8426,
      "ពិម្ពិ": 8427,
      "២០១០": 8428,
      "គីមី": 8429,
      "ប្តឹង": 8430,
      "ហិង្សា": 8431,
      "មហាសេដ្ឋី": 8432,
      "បោក្ខរណី": 8433,
      "ដេរដាស": 8434,
      "រណ្ដៅ": 8435,
      "ey": 8436,
      "ជង្គ": 8437,
      "ទង្វ": 8438,
      "នកម្ម": 8439,
      "រដ្": 8440,
      "ស៍": 8441,
      "អុជ": 8442,
      "៉ង់": 8443,
      "៥៤": 8444,
      "៥០០០": 8445,
      "ការផលិត": 8446,
      "inal": 8447,
      "រីង": 8448,
      "មែនទែន": 8449,
      "សេចក្ដីទុក្ខ": 8450,
      "បាណ្ឌ": 8451,
      "ជំពូក": 8452,
      "193": 8453,
      "ចាម្ប៉ា": 8454,
      "សោណ": 8455,
      "យុទ្ធសាស្ត្រ": 8456,
      "ទម្លាយ": 8457,
      "ខែកក្កដា": 8458,
      "ស្រាអែល": 8459,
      "ស្រោចស្រង់": 8460,
      "ព្រះឥន្ទ": 8461,
      "virus": 8462,
      "ឡារិក": 8463,
      "សីតុណ្ហភាព": 8464,
      ".\"": 8465,
      "Joh": 8466,
      "grow": 8467,
      "mov": 8468,
      "mill": 8469,
      "កាប": 8470,
      "កេង": 8471,
      "ចន": 8472,
      "ចុច": 8473,
      "ធម": 8474,
      "អៀរ": 8475,
      "៉ាង": 8476,
      "៧២": 8477,
      "វិការ": 8478,
      "ទ្ទេស": 8479,
      "សិដ្ឋ": 8480,
      "ពាធ": 8481,
      "អារាធ": 8482,
      "អ៊ីស្រាអែល": 8483,
      "បឋវី": 8484,
      "អាគារ": 8485,
      "ព្យាករណ៍": 8486,
      "អើហ្ន៎": 8487,
      "United": 8488,
      "បាសាក់": 8489,
      "វិនិយោគ": 8490,
      "ម៉ាឡេ": 8491,
      "កេរ្តិ៍ឈ្មោះ": 8492,
      "សុត្តន្ត": 8493,
      "គ្រូបង្រ": 8494,
      "ញាំញី": 8495,
      "Jim": 8496,
      "UN": 8497,
      "how": 8498,
      "put": 8499,
      "ww": 8500,
      "គាប": 8501,
      "ជម្": 8502,
      "ជូត": 8503,
      "ញូង": 8504,
      "រូស": 8505,
      "វត្តិ": 8506,
      "និះ": 8507,
      "ការវិនាស": 8508,
      "ទាំងអម្បាល": 8509,
      "អ្នកបម្រើ": 8510,
      "ញ្ញាប": 8511,
      "ចូលមកដល់": 8512,
      "ូនី": 8513,
      "ព្រះបាទា": 8514,
      "ឆ្លៀត": 8515,
      "ember": 8516,
      "ក្តារ": 8517,
      "សន្ដិ": 8518,
      "សំរាក": 8519,
      "class": 8520,
      "និរទេស": 8521,
      "early": 8522,
      "គណិតវិទ្យា": 8523,
      "តំរូវ": 8524,
      "គ្រូបង្រៀន": 8525,
      "val": 8526,
      "កុះ": 8527,
      "រោច": 8528,
      "ហនៈ": 8529,
      "ឡំ": 8530,
      "៥៨": 8531,
      "ិនា": 8532,
      "ការរីកចម្រើន": 8533,
      "ក្រចេះ": 8534,
      "អ្នកប្រើប្រាស់": 8535,
      "ន្ឋ": 8536,
      "onom": 8537,
      "ស្តូប": 8538,
      "ជ្រោះ": 8539,
      "សីទ": 8540,
      "ខែសីហា": 8541,
      "ចាត់តាំង": 8542,
      "ចម្រុះ": 8543,
      "ជំនុំសង្ឃ": 8544,
      "ល្ងង់ខ្លៅ": 8545,
      "ឧទ្ធច្ច": 8546,
      "number": 8547,
      "សឡាយតនៈ": 8548,
      "អាល់ប៊ុម": 8549,
      "ស្រទាប់": 8550,
      "មិត": 8551,
      "សណ្ដ": 8552,
      "ព្រះស្នំ": 8553,
      "ត្រង": 8554,
      "ត្រ័យ": 8555,
      "ការជួយ": 8556,
      "អ្នកមាន": 8557,
      "ទីរលត់": 8558,
      "ធ្វើប្រទក្សិណ": 8559,
      "ផ្ដុំ": 8560,
      "រួសរ": 8561,
      "មុខរបរ": 8562,
      "រំលំ": 8563,
      "ជំនិះ": 8564,
      "occ": 8565,
      "198": 8566,
      "ទន្លីង": 8567,
      "តម្រិះ": 8568,
      "comple": 8569,
      "ចង្កេះ": 8570,
      "World": 8571,
      "Sw": 8572,
      "mus": 8573,
      "គុំ": 8574,
      "លូ": 8575,
      "ឯត": 8576,
      "ការរលាស់": 8577,
      "ការលុកលុយ": 8578,
      "លោកិយ": 8579,
      "រិទ្ធ": 8580,
      "arr": 8581,
      "ថ្មើរ": 8582,
      "សម្បូ": 8583,
      "ប៊ុន": 8584,
      "ភោជនី": 8585,
      "everal": 8586,
      "បណ្តាលឲ្យ": 8587,
      "ជិវ": 8588,
      "ways": 8589,
      "large": 8590,
      "ិន្ទា": 8591,
      "អនាគាមិ": 8592,
      "()": 8593,
      "Vi": 8594,
      "mark": 8595,
      "ងា": 8596,
      "ឧទ": 8597,
      "ិនិយម": 8598,
      "ការបំពេញ": 8599,
      "ទីបញ្ចប់": 8600,
      "ច្ចស": 8601,
      "itions": 8602,
      "បន្ទះ": 8603,
      "amb": 8604,
      "ឆ្លាត": 8605,
      "សុទ្ធា": 8606,
      "ared": 8607,
      "តិរ្ថិយ": 8608,
      "ailed": 8609,
      "បោះពុម្ភ": 8610,
      "លក្ខណះ": 8611,
      "រន្ទះ": 8612,
      "causes": 8613,
      "ប្រជាប្រិយភាព": 8614,
      "ល័ក្ខ": 8615,
      "តូរ្យ": 8616,
      "ណធម៌": 8617,
      "យេន": 8618,
      "សើម": 8619,
      "ការមាន": 8620,
      "ការឲ្យ": 8621,
      "ការកាន់": 8622,
      "យ៉ូ": 8623,
      "សេយ្យ": 8624,
      "ដើម្បីឱ្យ": 8625,
      "ក្ស័យ": 8626,
      "កូនសិស្ស": 8627,
      "បើកបរ": 8628,
      "ជម្រុញ": 8629,
      "ចង្កៀង": 8630,
      "ផ្ទុយទៅវិញ": 8631,
      "បញ្ចុះបញ្ចូល": 8632,
      "សណ្តាប់": 8633,
      "ពោរពេញ": 8634,
      "កុះករ": 8635,
      "King": 8636,
      "make": 8637,
      "non": 8638,
      "ណុល": 8639,
      "សញ្ជ": 8640,
      "អព្យ": 8641,
      "៦៨": 8642,
      "ព្រះពោធិ": 8643,
      "នៅមុខ": 8644,
      "សេចក្តីសរសើរ": 8645,
      "ជន្ល": 8646,
      "រសជាតិ": 8647,
      "នាំអោយ": 8648,
      "អាសា": 8649,
      "មហាផ្ទៃ": 8650,
      "បទពិសោធន៍": 8651,
      "ហ៊ូ": 8652,
      "សហការ": 8653,
      "ប្រជុំជន": 8654,
      "ត៌ក": 8655,
      "major": 8656,
      "ព្រះហស្ថ": 8657,
      "បរប": 8658,
      "យាទ": 8659,
      "រោល": 8660,
      "សវ": 8661,
      "អុក": 8662,
      "៤២": 8663,
      "៧១": 8664,
      "ពីន": 8665,
      "ទីឃ": 8666,
      "ស្សត": 8667,
      "រសៀល": 8668,
      "សម្រប": 8669,
      "មនុស្សធម្មតា": 8670,
      "els": 8671,
      "ស្វេត": 8672,
      "ល្បាត": 8673,
      "រ៉ូ": 8674,
      "194": 8675,
      "បណ្ឌិត្យ": 8676,
      "សន្ដាន": 8677,
      "ពន្ធនាគារ": 8678,
      "ានុវង្ស": 8679,
      "oultry": 8680,
      "អណ្ដូង": 8681,
      "da": 8682,
      "fic": 8683,
      "much": 8684,
      "oe": 8685,
      "គគីរ": 8686,
      "រជាតិ": 8687,
      "វ័": 8688,
      "ឝាន": 8689,
      "ព្រុស": 8690,
      "វិវា": 8691,
      "ទីប្រាថ្នា": 8692,
      "ឲ្យកាន់": 8693,
      "ស្រ្": 8694,
      "ទ្រន": 8695,
      "សេចក្តីអនុគ្រោះ": 8696,
      "ប្រកាប់": 8697,
      "ised": 8698,
      "បរិបូរ": 8699,
      "ថ្ងៃស្អែក": 8700,
      "ស្រីលង្កា": 8701,
      "អភិរក្ស": 8702,
      "ស្មឹង": 8703,
      "ភោគី": 8704,
      "មិង": 8705,
      "ឧត្តរ": 8706,
      "លាតសន្ធឹង": 8707,
      "Sch": 8708,
      "ដាណ": 8709,
      "តាន់": 8710,
      "យ័": 8711,
      "អើម": 8712,
      "ឹង្ស": 8713,
      "៦២": 8714,
      "វិភង្គ": 8715,
      "ស្រង": 8716,
      "សំល": 8717,
      "គរុក": 8718,
      "ames": 8719,
      "ides": 8720,
      "suc": 8721,
      "ប៉ះទង្គិច": 8722,
      "សន្និបាត": 8723,
      "All": 8724,
      "ternational": 8725,
      "each": 8726,
      "fil": 8727,
      "mun": 8728,
      "ខឿន": 8729,
      "ទន្ត": 8730,
      "ធឹង": 8731,
      "ល័យ": 8732,
      "សះ": 8733,
      "ជាចិត្ត": 8734,
      "ប្រសាសន៍": 8735,
      "ព្រះនិញ្វន": 8736,
      "ការលេង": 8737,
      "ទៅរក": 8738,
      "វិស្វ": 8739,
      "ផ្ងារ": 8740,
      "ពិពណ៌នា": 8741,
      "មុត្ត": 8742,
      "សិក": 8743,
      "រមិល": 8744,
      "ital": 8745,
      "ដាក់ឈ្មោះ": 8746,
      "oper": 8747,
      "ចលាច": 8748,
      "ពិន្": 8749,
      "ការប្រមូល": 8750,
      "យាត្រា": 8751,
      "ព្រះភគ": 8752,
      "days": 8753,
      "សិរ្ស": 8754,
      "ឃៅ": 8755,
      "ឃោរ": 8756,
      "ធេង": 8757,
      "ព្ន": 8758,
      "សប្ប": 8759,
      "អមនុស្ស": 8760,
      "ឫក្ស": 8761,
      "ុក្រម": 8762,
      "្ហា": 8763,
      "៥១": 8764,
      "ារកៈ": 8765,
      "ការយល់": 8766,
      "ក្រចក": 8767,
      "ទេន": 8768,
      "អាភ": 8769,
      "សំយុត្ត": 8770,
      "ម៉ាក": 8771,
      "ico": 8772,
      "ste": 8773,
      "omet": 8774,
      "ន្ទ្រិយ": 8775,
      "សិល្ប៍": 8776,
      "poss": 8777,
      "វិទ្យាសាស្រ្ត": 8778,
      "សម្ងាត់": 8779,
      "ពិម្ពិសារ": 8780,
      "Eng": 8781,
      "កត": 8782,
      "គឹក": 8783,
      "ឈូ": 8784,
      "តក": 8785,
      "អែង": 8786,
      "៩១": 8787,
      "ប្រឡាយ": 8788,
      "ការយល់ឃើញ": 8789,
      "ស្មុ": 8790,
      "រាធ": 8791,
      "សំបក": 8792,
      "ara": 8793,
      "បរិមាណ": 8794,
      "ស្តម្ភ": 8795,
      "សុខោ": 8796,
      "ភ្នែន": 8797,
      "មហោ": 8798,
      "ស្មូន": 8799,
      "ញ្ជា": 8800,
      "វេទយិត": 8801,
      "មនោកម្ម": 8802,
      "umb": 8803,
      "អាមេនី": 8804,
      "ours": 8805,
      "ញ្ចេត": 8806,
      "គិជ្ឈ": 8807,
      "សង្វេគ": 8808,
      "ងូតទឹក": 8809,
      "ានុស័យ": 8810,
      "US": 8811,
      "\\>": 8812,
      "ចចក": 8813,
      "ឈិន": 8814,
      "ដ្រ": 8815,
      "និន្ទា": 8816,
      "បៃ": 8817,
      "បោល": 8818,
      "មៈ": 8819,
      "វទី": 8820,
      "ព្រះពន្លា": 8821,
      "ការផ្សាយ": 8822,
      "ខាងឆ្វេង": 8823,
      "ones": 8824,
      "អំនាច": 8825,
      "ភាពងាយស្រួល": 8826,
      "ចេញផ្សាយ": 8827,
      "គោចរ": 8828,
      "ច្បាស់ជា": 8829,
      "រវល់": 8830,
      "ឃ្លា": 8831,
      "istic": 8832,
      "២០០៤": 8833,
      "សាកល្បង": 8834,
      "សោតា": 8835,
      "នឹកឃើញ": 8836,
      "Ananda": 8837,
      "គ្រាប់បែក": 8838,
      "book": 8839,
      "ពពក": 8840,
      "អេឡិចត្រូ": 8841,
      "National": 8842,
      "dire": 8843,
      "ham": 8844,
      "មួ": 8845,
      "ហត់": 8846,
      "៤១": 8847,
      "ក្ករ": 8848,
      "ព្រះចេតិយ": 8849,
      "ការដេក": 8850,
      "វិសាល": 8851,
      "រិមនុស្ស": 8852,
      "ប៉ម": 8853,
      "ធម្មា": 8854,
      "កំណើន": 8855,
      "ច្រណែន": 8856,
      "ជំរាប": 8857,
      "ជ័យជម្នះ": 8858,
      "លីពីន": 8859,
      "ការពិន": 8860,
      "ប្រធានបទ": 8861,
      "មហាសុ": 8862,
      "ណិហិត": 8863,
      "ប្រដាប់បាត្រ": 8864,
      "យាមៈ": 8865,
      "ចម្ប៉ា": 8866,
      "កាតូលិក": 8867,
      "ទំនុកបម្រុង": 8868,
      "ប្រសិទ្ធភាព": 8869,
      "ចលាចល": 8870,
      "Me": 8871,
      "ច្": 8872,
      "ឆាយ": 8873,
      "លិន": 8874,
      "ហាស": 8875,
      "ព្រះញាតិ": 8876,
      "ព្រះត្រពាំង": 8877,
      "ត្រដ": 8878,
      "ក្រាម": 8879,
      "សេចក្តីខ្លាច": 8880,
      "សុភា": 8881,
      "ចូលរៀន": 8882,
      "ហាចន្ទ": 8883,
      "មេរុ": 8884,
      "វេទេ": 8885,
      "បញ្ជ": 8886,
      "ស្មាញ": 8887,
      "សំណាង": 8888,
      "កើតមានឡើង": 8889,
      "យាហារ": 8890,
      "became": 8891,
      "ពិរោធ": 8892,
      "អលង្ការ": 8893,
      "Ab": 8894,
      "hand": 8895,
      "sing": 8896,
      "កបិល": 8897,
      "ងន់": 8898,
      "ចឹង": 8899,
      "តម្": 8900,
      "ហួង": 8901,
      "ឡង់": 8902,
      "ឱត្ត": 8903,
      "ិទ្ធិ": 8904,
      "៩២": 8905,
      "៩៧": 8906,
      "ក្វ": 8907,
      "្លង": 8908,
      "ការដក": 8909,
      "ination": 8910,
      "សេចក្តីសៅហ្មង": 8911,
      "គួរសរសើរ": 8912,
      "ព្វកិច្ច": 8913,
      "មេម៉ាយ": 8914,
      "ម៉ារី": 8915,
      "បារំាង": 8916,
      "ស្រឡប់": 8917,
      "ចំរៀង": 8918,
      "ខ្វែង": 8919,
      "អ៊ីរ៉": 8920,
      "need": 8921,
      "ព័រទុយ": 8922,
      "ព្រឹកឡើង": 8923,
      "iew": 8924,
      "Cambodian": 8925,
      "ប្បញ្ញត្តិ": 8926,
      "\"\"": 8927,
      "22": 8928,
      "sl": 8929,
      "កាច់": 8930,
      "ខាល": 8931,
      "ខ្យ": 8932,
      "រធម៌": 8933,
      "ៃយ៍": 8934,
      "រាគា": 8935,
      "ret": 8936,
      "ប្បច្ចយ": 8937,
      "យោនិស": 8938,
      "ធម្មទេសនា": 8939,
      "សេចក្ដីវិនាស": 8940,
      "before": 8941,
      "They": 8942,
      "exp": 8943,
      "ចម្លើយ": 8944,
      "ពិនិត្យមើល": 8945,
      "សម្ព័ន្ធមិត្ត": 8946,
      "ភ្ញាក់ផ្អើល": 8947,
      "សង្រ្គោះ": 8948,
      "វដ្តកប្ប": 8949,
      "itional": 8950,
      "ample": 8951,
      "សង្វាត": 8952,
      "មហាសេនា": 8953,
      "vention": 8954,
      "វដ្ដ": 8955,
      "រួញរា": 8956,
      "ព្រះយេស": 8957,
      "សុត្តន្តបិដក": 8958,
      "យោនិសោមន": 8959,
      "><": 8960,
      "Ad": 8961,
      "Mon": 8962,
      "don": 8963,
      "far": 8964,
      "ming": 8965,
      "na": 8966,
      "oto": 8967,
      "vers": 8968,
      "ញត្តិ": 8969,
      "ភណ": 8970,
      "ហឺ": 8971,
      "ហ៊ី": 8972,
      "ហិក": 8973,
      "អំពៅ": 8974,
      "វេជ្ជ": 8975,
      "ម៉ង់": 8976,
      "អនុគមន៍": 8977,
      "កិច្ចសន្យា": 8978,
      "ush": 8979,
      "សហប្រតិបត្តិការ": 8980,
      "ស៊ុយ": 8981,
      "សាលោហិត": 8982,
      "គីរី": 8983,
      "ency": 8984,
      "country": 8985,
      "អាថ៌កំបាំង": 8986,
      "Her": 8987,
      "cy": 8988,
      "ងាប់": 8989,
      "រណៈ": 8990,
      "ហែម": 8991,
      "ឱស": 8992,
      "ង្ឃ": 8993,
      "ការចុះ": 8994,
      "ការលំបាក": 8995,
      "ក្រាំង": 8996,
      "អ្នកនយោបាយ": 8997,
      "គ្រាត": 8998,
      "គ្ឃ": 8999,
      "យ៉ាងហោច": 9000,
      "លោកឪពុក": 9001,
      "កំព្រា": 9002,
      "សុទិន្ន": 9003,
      "អំបូរ": 9004,
      "ព្រះសង្ឃរាជ": 9005,
      "play": 9006,
      "បាក់បែក": 9007,
      "ថ្កើង": 9008,
      "ដួលរលំ": 9009,
      "remain": 9010,
      "ជ្រាលជ្រៅ": 9011,
      "ញ្ចេតនា": 9012,
      "90": 9013,
      "fact": 9014,
      "oid": 9015,
      "កាំង": 9016,
      "គឹ": 9017,
      "ចាង": 9018,
      "បន្ន": 9019,
      "អគារ": 9020,
      "ីភាព": 9021,
      "ូញ": 9022,
      "៤០០": 9023,
      "៥៣": 9024,
      "ប្រសាទ": 9025,
      "ការគិត": 9026,
      "អ្នកជំងឺ": 9027,
      "ន្តៈ": 9028,
      "ប៉ិន": 9029,
      "សាស្រ": 9030,
      "កាន់អំណាច": 9031,
      "វត្ថារកៈ": 9032,
      "ទំងន់": 9033,
      "ប្រតិស្ឋាន": 9034,
      "វីរិយ": 9035,
      "ល្មោភ": 9036,
      "wee": 9037,
      "បន្លា": 9038,
      "ប្រគល់ឲ្យ": 9039,
      "ប្រឡង": 9040,
      "type": 9041,
      "អប្បណិហិត": 9042,
      "អាណាព្យាបាល": 9043,
      "ខ្ពើមរ": 9044,
      "Mah": 9045,
      "production": 9046,
      "លួងលោម": 9047,
      ".,": 9048,
      "At": 9049,
      "Pl": 9050,
      "cul": 9051,
      "ox": 9052,
      "សឺ": 9053,
      "សាវិកា": 9054,
      "មាគ៌": 9055,
      "បាយាស": 9056,
      "ទំនេរ": 9057,
      "death": 9058,
      "តបៈ": 9059,
      "សតិសម្ពោជ្ឈង្គ": 9060,
      "crip": 9061,
      "look": 9062,
      "ដំបូល": 9063,
      "ព្រះចន្ទ្រ": 9064,
      "China": 9065,
      "turn": 9066,
      "អប្សរ": 9067,
      "កាមេសុមិច្ឆា": 9068,
      "ជង្គង់": 9069,
      "Ex": 9070,
      "Gu": 9071,
      "poultry": 9072,
      "several": 9073,
      "ចុក": 9074,
      "តុប": 9075,
      "ពក": 9076,
      "រភាព": 9077,
      "ាសា": 9078,
      "ពួកសាវក": 9079,
      "ina": 9080,
      "សេចក្តីប្រែប្រួល": 9081,
      "ត្អ": 9082,
      "រូបមន្ត": 9083,
      "ព្រាហ្មណី": 9084,
      "action": 9085,
      "យល់ស្រប": 9086,
      "គុណសម្បត្តិ": 9087,
      "ទិសដៅ": 9088,
      "ស្មូម": 9089,
      "បែបបទ": 9090,
      "បន្សាត់": 9091,
      "ចែកចាយ": 9092,
      "២០០៥": 9093,
      "ក្ដារ": 9094,
      "ាទិសេស": 9095,
      "សំរោងទង": 9096,
      "ខ្ពើមរអើម": 9097,
      "If": 9098,
      "កោក": 9099,
      "កូស": 9100,
      "ហួយ": 9101,
      "ឱក": 9102,
      "៩៩": 9103,
      "ព្រះអនុជ": 9104,
      "ទ្រោម": 9105,
      "មុទ": 9106,
      "ense": 9107,
      "still": 9108,
      "បារី": 9109,
      "១៨០": 9110,
      "មន័យ": 9111,
      "សុំឲ្យ": 9112,
      "អ៊ិន": 9113,
      "សប្បាយចិត្ត": 9114,
      "វចនៈ": 9115,
      "against": 9116,
      "បាមោ": 9117,
      "ទុដ្ឋុល្ល": 9118,
      "03": 9119,
      "IN": 9120,
      "Mo": 9121,
      "Se": 9122,
      "ban": 9123,
      "cop": 9124,
      "mit": 9125,
      "nec": 9126,
      "ខួប": 9127,
      "ឃាំង": 9128,
      "ជៀស": 9129,
      "ញើស": 9130,
      "លោះ": 9131,
      "អនិមិត្ត": 9132,
      "ឥស្លាម": 9133,
      "ជាសាធារណៈ": 9134,
      "ការបរិបូណ៌": 9135,
      "ខ្មី": 9136,
      "គុម្ព": 9137,
      "កុសិនា": 9138,
      "trib": 9139,
      "តារាង": 9140,
      "ឈ្លាសក្នុង": 9141,
      "អមតៈ": 9142,
      "លំអិត": 9143,
      "iety": 9144,
      "ព្រះជន្មាយុ": 9145,
      "នីតិវិធី": 9146,
      "ysis": 9147,
      "សំនៀង": 9148,
      "agnosis": 9149,
      "ស្តុកស្តម្ភ": 9150,
      "ពិន្ទុ": 9151,
      "Sy": 9152,
      "ឆព្វ": 9153,
      "ណារ": 9154,
      "ភុ": 9155,
      "ឱឡារិក": 9156,
      "័ទ": 9157,
      "ព្រះវស្សា": 9158,
      "សមភាព": 9159,
      "សាឡ": 9160,
      "សិរិ": 9161,
      "ល្អក់": 9162,
      "បន្ទាន់": 9163,
      "ភ្លាំង": 9164,
      "សរណៈ": 9165,
      "ច្រាល": 9166,
      "សម្រេចបាន": 9167,
      "ows": 9168,
      "ements": 9169,
      "ស្វែងយល់": 9170,
      "ified": 9171,
      "exist": 9172,
      "ឈប់ឈរ": 9173,
      "peror": 9174,
      "នរិន្ទ": 9175,
      "អត្តសញ្ញាណ": 9176,
      "អត់ទ្រាំ": 9177,
      "ទន់ខ្សោយ": 9178,
      "កោសល្យ": 9179,
      "កាតព្វកិច្ច": 9180,
      "ឆ្ពោះទៅ": 9181,
      "សណ្តែក": 9182,
      "lingu": 9183,
      "help": 9184,
      "ព្រះបច្ចេកពុទ្ធ": 9185,
      "ទង្វើ": 9186,
      "ឃោរឃៅ": 9187,
      "ការពិនិត្យ": 9188,
      "Pe": 9189,
      "four": 9190,
      "ru": 9191,
      "vis": 9192,
      "went": 9193,
      "ថោង": 9194,
      "និន": 9195,
      "ហិច": 9196,
      "៧៨": 9197,
      "ការស្តាប់": 9198,
      "្នក់": 9199,
      "និយមន័យ": 9200,
      "ផ្លេក": 9201,
      "តំរិះ": 9202,
      "រំពង": 9203,
      "រលែក": 9204,
      "ជើងគោក": 9205,
      "វិន្ទ": 9206,
      "មហាម": 9207,
      "ime": 9208,
      "២០០៩": 9209,
      "កាសី": 9210,
      "CarN": 9211,
      "កំហឹង": 9212,
      "អាឡោះ": 9213,
      "ដង្ហែ": 9214,
      "សញ្ញាប": 9215,
      "ពន់ពេក": 9216,
      "ប្រឈមមុខ": 9217,
      "គំរាមកំហែង": 9218,
      "ស្រ្ដី": 9219,
      "Ge": 9220,
      "kill": 9221,
      "later": 9222,
      "since": 9223,
      "ច់": 9224,
      "ដ្ន": 9225,
      "បទុ": 9226,
      "បាតុ": 9227,
      "វុជ": 9228,
      "អង្រ": 9229,
      "ីម": 9230,
      "យ៉ាត": 9231,
      "សុទ្ទៈ": 9232,
      "ព្យាម": 9233,
      "ជ្រួត": 9234,
      "វេន": 9235,
      "ក្សី": 9236,
      "បូរាណ": 9237,
      "អរុណ": 9238,
      "បទបញ្ជា": 9239,
      "មារយាទ": 9240,
      "ស្លូត": 9241,
      "រយៈកាល": 9242,
      "without": 9243,
      "អ៊ីស្លាម": 9244,
      "ភ្ជុំ": 9245,
      "ize": 9246,
      "អី្វ": 9247,
      "ទប់ស្កាត់": 9248,
      "ដេអូ": 9249,
      "បង្វិល": 9250,
      "គេហទំព័រ": 9251,
      "បាវចរ": 9252,
      "សន្ថ័ត": 9253,
      "ឡោមព័ទ្ធ": 9254,
      "បាងកក": 9255,
      "small": 9256,
      "John": 9257,
      "98": 9258,
      "IS": 9259,
      "las": 9260,
      "បន": 9261,
      "បវរ": 9262,
      "អសេក្ខ": 9263,
      "ជាធម្មជាត": 9264,
      "ប្រៃ": 9265,
      "ព្រះលោក": 9266,
      "ព្រះអំណរ": 9267,
      "ការ៉េ": 9268,
      "ន្តុះ": 9269,
      "បរិកម្ម": 9270,
      "បីដូច": 9271,
      "ណាច់": 9272,
      "ចិន្តា": 9273,
      "ters": 9274,
      "ប្រហាក់": 9275,
      "tra": 9276,
      "ឧត្តរិមនុស្ស": 9277,
      "តួអង្គ": 9278,
      "១៩៦០": 9279,
      "increas": 9280,
      "កស្សបៈ": 9281,
      "issan": 9282,
      "milit": 9283,
      "នគរបាល": 9284,
      "ដាណឺម៉": 9285,
      "កក្កដា": 9286,
      "តុល": 9287,
      "លក": 9288,
      "៩៨": 9289,
      "ប្រថ": 9290,
      "ការដោះ": 9291,
      "ការផ្លាស់ប្ដូរ": 9292,
      "ទីប្រឹក្សា": 9293,
      "អាទិត្យ": 9294,
      "សេចក្តីស្ងប់": 9295,
      "សេចក្តីត្រូវការ": 9296,
      "ពិសា": 9297,
      "ery": 9298,
      "មុប្ប": 9299,
      "ស្តើង": 9300,
      "ត្ថិ": 9301,
      "រួចទៅ": 9302,
      "សំណេះ": 9303,
      "ided": 9304,
      "បាតុក": 9305,
      "អគ្គិស": 9306,
      "គ្របដណ្តប់": 9307,
      "ពន្ធុ": 9308,
      "រឹងរូស": 9309,
      "យន្តហោះ": 9310,
      "១៩៩៣": 9311,
      "អសុភ": 9312,
      "ញ្ចាយតនៈ": 9313,
      "partic": 9314,
      "ences": 9315,
      "ross": 9316,
      "school": 9317,
      "បរិយាកាស": 9318,
      "ដាណឺម៉ាក": 9319,
      "Gi": 9320,
      "No": 9321,
      "pap": 9322,
      "sol": 9323,
      "ងូ": 9324,
      "ទួ": 9325,
      "សយ": 9326,
      "ការេ": 9327,
      "គ្រោត": 9328,
      "យ៉ាងតិច": 9329,
      "សុរិយ": 9330,
      "atic": 9331,
      "ជីង": 9332,
      "icros": 9333,
      "ផ្លូវថ្នល់": 9334,
      "ផ្ទៀង": 9335,
      "ផ្តន្ទាទោស": 9336,
      "ដៃគូ": 9337,
      "ត្រង់នេះ": 9338,
      "សំណុំ": 9339,
      "aving": 9340,
      "លើសលប់": 9341,
      "បំផ្លិច": 9342,
      "ូណាន": 9343,
      "ក្វាន់": 9344,
      "សំណេះសំណ": 9345,
      "អគ្គិសនី": 9346,
      ".[": 9347,
      "ដោល": 9348,
      "តំន": 9349,
      "នឹម": 9350,
      "ផរុស": 9351,
      "លៈ": 9352,
      "លូក": 9353,
      "ល័រ": 9354,
      "៧៦": 9355,
      "ព្រាង": 9356,
      "ាសី": 9357,
      "ម្មៈ": 9358,
      "មេកង": 9359,
      "ទទួលទាន": 9360,
      "ថ្លើម": 9361,
      "ស្នូល": 9362,
      "ets": 9363,
      "ចង្រៃ": 9364,
      "quality": 9365,
      "ប្រឹថ": 9366,
      "បណ្ដេញ": 9367,
      "អនត្តា": 9368,
      "អនាគតកាល": 9369,
      "ប្រទះឃើញ": 9370,
      "ording": 9371,
      "វចនាន": 9372,
      "gen": 9373,
      "night": 9374,
      "ric": 9375,
      "uk": 9376,
      "ជោក": 9377,
      "ហម": 9378,
      "អៀង": 9379,
      "មានប្រសាសន៍": 9380,
      "ការយល់ដឹង": 9381,
      "អ្នកត្រេកអរ": 9382,
      "សមី": 9383,
      "ជនភៀសខ្លួន": 9384,
      "ឡើងគ្រងរាជ្យ": 9385,
      "ref": 9386,
      "ories": 9387,
      "ចៅចិត្រ": 9388,
      "ឧបសគ្គ": 9389,
      "ទុកឲ្យ": 9390,
      "ប្រជាមាន": 9391,
      "ខែមីនា": 9392,
      "ទំនប់": 9393,
      "ជំនិត": 9394,
      "example": 9395,
      "សោភ័": 9396,
      "ភ្លឺស្វាង": 9397,
      "group": 9398,
      "ship": 9399,
      "អសុចិ": 9400,
      "ល្អិតល្អ": 9401,
      "បាដិក": 9402,
      "រូបិយវត្ថុ": 9403,
      "សុញ្ញត": 9404,
      "ព្យាង្គ": 9405,
      "ចណ្ឌាល": 9406,
      "និព្វិ": 9407,
      "សុខោទ័យ": 9408,
      "តុបតែង": 9409,
      "ជ្រួតជ្រាប": 9410,
      "War": 9411,
      "You": 9412,
      "aut": 9413,
      "line": 9414,
      "national": 9415,
      "ឆៅ": 9416,
      "យន្ដ": 9417,
      "វៀន": 9418,
      "៧៧": 9419,
      "៩៣": 9420,
      "នាវ": 9421,
      "សេចក្តីអន្តរាយ": 9422,
      "era": 9423,
      "ខ្លួនខ្ញុំ": 9424,
      "សិវ": 9425,
      "កម្មដ្ឋាន": 9426,
      "ចៅអធិការ": 9427,
      "កុដ": 9428,
      "lect": 9429,
      "ស្វះ": 9430,
      "ច្របូក": 9431,
      "ហ៊្": 9432,
      "ផែនទី": 9433,
      "ស័ក្ដិ": 9434,
      "មគ្គផល": 9435,
      "នាគរាជ": 9436,
      "ចន្ទន៍": 9437,
      "species": 9438,
      "វែកញែក": 9439,
      "វៀច": 9440,
      "បំផ្លិចបំផ្លាញ": 9441,
      "សំណេះសំណាល": 9442,
      "cal": 9443,
      "ht": 9444,
      "log": 9445,
      "view": 9446,
      "ឈឹង": 9447,
      "ពាង": 9448,
      "អុំ": 9449,
      "ឣា": 9450,
      "៨៣": 9451,
      "អ្នកគាំទ្រ": 9452,
      "ចំបង": 9453,
      "រាជសំណាក់": 9454,
      "org": 9455,
      "លំនាំ": 9456,
      "state": 9457,
      "ទាគា": 9458,
      "រំសាយ": 9459,
      "ល្បិច": 9460,
      "បដិញ្ញាត": 9461,
      "ពិន័យ": 9462,
      "ិមាល": 9463,
      "ឧបាយកល": 9464,
      "ជិង": 9465,
      "ព្រួយបារម្ភ": 9466,
      "ម្ល៉ោះ": 9467,
      "ពិរោះ": 9468,
      "wards": 9469,
      "German": 9470,
      "តានតឹង": 9471,
      "ព័រទុយហ្": 9472,
      "CarNissan": 9473,
      "ប្រហាក់ប្រហែល": 9474,
      "វចនានុក្រម": 9475,
      "AN": 9476,
      "Will": 9477,
      "ien": 9478,
      "ខាំង": 9479,
      "ឆោម": 9480,
      "ទ្ប": 9481,
      "ធូប": 9482,
      "ផ្វ": 9483,
      "ហុច": 9484,
      "ឡង": 9485,
      "អត្តា": 9486,
      "ានន្ទ": 9487,
      "ការវិភាគ": 9488,
      "ាតា": 9489,
      "យ៉ាងម៉េច": 9490,
      "ទេសភាព": 9491,
      "orig": 9492,
      "ម៉ាក់": 9493,
      "អនុវិទ្យាល័យ": 9494,
      "ព្រៃវែង": 9495,
      "imes": 9496,
      "owed": 9497,
      "អនាបត្តិ": 9498,
      "អាឡារ": 9499,
      "គន្ធព្វ": 9500,
      "១៩៤៥": 9501,
      "ខែកុ": 9502,
      "ឃោសនា": 9503,
      "បៃតង": 9504,
      "យ៉ាងហោចណាស់": 9505,
      "សាស្រ្ដ": 9506,
      "មាគ៌ា": 9507,
      "99": 9508,
      "Qu": 9509,
      "mb": 9510,
      "spe": 9511,
      "នន": 9512,
      "នូ": 9513,
      "វណ្ណា": 9514,
      "ជាធម្ម": 9515,
      "ម្ពី": 9516,
      "និវាស": 9517,
      "អ្នកស្រាវជ្រាវ": 9518,
      "ស្រន់": 9519,
      "ណ្ឋ": 9520,
      "ពុទ្ធសាសន": 9521,
      "សម្ដី": 9522,
      "មេស្មឹង": 9523,
      "គ្រូពេទ្យ": 9524,
      "សម្លៀកបំពាក់": 9525,
      "កប្បាស": 9526,
      "ended": 9527,
      "word": 9528,
      "ហាក់បីដូចជា": 9529,
      "ired": 9530,
      "ទំនៀមទំលាប់": 9531,
      "អន្តរា": 9532,
      "បាដិហារ្យ": 9533,
      "អាឡោះអាល័យ": 9534,
      "ប្រជាមានិត": 9535,
      "wood": 9536,
      "ជឺ": 9537,
      "ជៈ": 9538,
      "ថេ": 9539,
      "រង្": 9540,
      "ល្វា": 9541,
      "ហាយ": 9542,
      "អយ": 9543,
      "៣០០០០": 9544,
      "៦៣": 9545,
      "និរយ": 9546,
      "ការកំចាត់បង់": 9547,
      "ួយ៉ាង": 9548,
      "ទ្រុឌ": 9549,
      "នាឡ": 9550,
      "ប៉ៃ": 9551,
      "oft": 9552,
      "ប្រព្រឹត្ដ": 9553,
      "អនុវា": 9554,
      "បង្គោល": 9555,
      "សេចក្ដីសង្ស័យ": 9556,
      "សព្វកាល": 9557,
      "using": 9558,
      "ock": 9559,
      "areas": 9560,
      "ote": 9561,
      "គីស្ថាន": 9562,
      "ពូជសាសន៍": 9563,
      "ឃ្មាត": 9564,
      "សក្យៈ": 9565,
      "build": 9566,
      "ឱសថ": 9567,
      "33": 9568,
      "iation": 9569,
      "test": 9570,
      "ឆក់": 9571,
      "ផេះ": 9572,
      "ហួន": 9573,
      "៧៣": 9574,
      "ការបាត់បង់": 9575,
      "ក្រំ": 9576,
      "ទីរលឹក": 9577,
      "អង្គជាត": 9578,
      "ពិការ": 9579,
      "ប៉ី": 9580,
      "ened": 9581,
      "ឧបទ្វីប": 9582,
      "មហាក្សត្រ": 9583,
      "១៩៨០": 9584,
      "សំណួរ": 9585,
      "idd": 9586,
      "បន្ទាយមាស": 9587,
      "ប្រហោង": 9588,
      "គហប": 9589,
      "បស្សទ្ធិ": 9590,
      "សរីរ": 9591,
      "law": 9592,
      "popul": 9593,
      "ទំពាស៊ី": 9594,
      "ជម្ពូ": 9595,
      "គិជ្ឈកូដ": 9596,
      "ច្របូកច្របល់": 9597,
      "//": 9598,
      "21": 9599,
      "By": 9600,
      "ues": 9601,
      "ype": 9602,
      "ថេយ្យ": 9603,
      "ហិន": 9604,
      "ាហ": 9605,
      "៤៣": 9606,
      "ារ៉ា": 9607,
      "ស្ករ": 9608,
      "ស្រយ": 9609,
      "តាមដាន": 9610,
      "ជ្រួល": 9611,
      "ភ្លៅ": 9612,
      "បារាយណ៍": 9613,
      "ហ៊្វ": 9614,
      "ធ្លោ": 9615,
      "កំណត់ត្រា": 9616,
      "akes": 9617,
      "សក្ការ": 9618,
      "មេរ័យ": 9619,
      "ស្មុគ": 9620,
      "ច្ចំ": 9621,
      "បាមោជ្ជៈ": 9622,
      "div": 9623,
      "ture": 9624,
      "ចាតុ": 9625,
      "ជដិល": 9626,
      "តតាំង": 9627,
      "សក្កៈ": 9628,
      "ហុយ": 9629,
      "អង": 9630,
      "និមន្ដ": 9631,
      "អ្នករក្សា": 9632,
      "ស្រូប": 9633,
      "those": 9634,
      "រាជបុត្រ": 9635,
      "ថ្ងៃត្រង់": 9636,
      "itect": 9637,
      "ប្រសូ": 9638,
      "chn": 9639,
      "usually": 9640,
      "អារក្ស": 9641,
      "ពោធ": 9642,
      "ផ្នត់": 9643,
      "ត្រឡាច": 9644,
      "ively": 9645,
      "អរិយៈ": 9646,
      "beg": 9647,
      "ប្រតិបត្តិធម៌": 9648,
      "២០១១": 9649,
      "ជម្រាប": 9650,
      "contain": 9651,
      "States": 9652,
      "offic": 9653,
      "When": 9654,
      "ឆ្លុះបញ្ចាំង": 9655,
      "តាំងតែពី": 9656,
      "ហាបណៈ": 9657,
      "ប្រសិទ្ធិភាព": 9658,
      "great": 9659,
      "tic": 9660,
      "ឆន្ន": 9661,
      "ឧស្ម": 9662,
      "៨២": 9663,
      "ប្រមា": 9664,
      "មានអាហារ": 9665,
      "ព្រះមហេសី": 9666,
      "ត្រឹង": 9667,
      "ន្សែង": 9668,
      "ទីរីករាយ": 9669,
      "ឡើងជិះ": 9670,
      "ដីធ្ល": 9671,
      "ទិ្ធ": 9672,
      "ព្យុះ": 9673,
      "វេទិ": 9674,
      "កុម្ភ": 9675,
      "ស្វ័យ": 9676,
      "រៀបរៀង": 9677,
      "ស៊ិន": 9678,
      "សំណាក": 9679,
      "កន្លងផុត": 9680,
      "កំពង់ត្រា": 9681,
      "សេពគប់": 9682,
      "ស្ថាបនិក": 9683,
      "ទាញយក": 9684,
      "កន្ទក់": 9685,
      "point": 9686,
      "សុកូល": 9687,
      "modern": 9688,
      "support": 9689,
      "មហិមា": 9690,
      "បដិញ្ញាតករណៈ": 9691,
      "ដីធ្លី": 9692,
      "ustr": 9693,
      "ទះ": 9694,
      "អសង្ខត": 9695,
      "៉ូ": 9696,
      "១២០": 9697,
      "ជាបតិ": 9698,
      "ប្រប": 9699,
      "ការទំនាក់ទំនង": 9700,
      "សាជាថ្មី": 9701,
      "អំព": 9702,
      "ទិព្យ": 9703,
      "សម្ពត់": 9704,
      "សុខុម": 9705,
      "ផ្តុំ": 9706,
      "ខុសប្លែក": 9707,
      "ទ្វេ": 9708,
      "មាតិកា": 9709,
      "comb": 9710,
      "ខំប្រឹង": 9711,
      "place": 9712,
      "ments": 9713,
      "ibr": 9714,
      "លុបបំបាត់": 9715,
      "កញ្ចប់": 9716,
      "អាណិតអាសូរ": 9717,
      "ស្ថេរភាព": 9718,
      "ព្រះសិទ្ធាន": 9719,
      "របាយការណ៍": 9720,
      "direct": 9721,
      "Tur": 9722,
      "nh": 9723,
      "ជ័រ": 9724,
      "បជ្ជៈ": 9725,
      "រ៍": 9726,
      "អ័": 9727,
      "ុខ": 9728,
      "ជាស្រេច": 9729,
      "ព្រះផ្នួស": 9730,
      "ការចូល": 9731,
      "តំកើង": 9732,
      "កូនប្រ": 9733,
      "ច្រត់": 9734,
      "ជំរំ": 9735,
      "បន់ស្រន់": 9736,
      "ថ្នូរ": 9737,
      "វីដេអូ": 9738,
      "នរជន": 9739,
      "សណ្ឋា": 9740,
      "វេស្សៈ": 9741,
      "ព្រះកន្សែង": 9742,
      "ភូមិន្ទ": 9743,
      "character": 9744,
      "ជនីយដ្ឋាន": 9745,
      "ជិវ្ហា": 9746,
      "គ្ឃបជ្ជៈ": 9747,
      "CA": 9748,
      "ET": 9749,
      "young": 9750,
      "ដង់": 9751,
      "ាតាំង": 9752,
      "អាគម": 9753,
      "ខាងស្ដាំ": 9754,
      "ប្បលាប": 9755,
      "ទិវា": 9756,
      "ទទួលរង": 9757,
      "omen": 9758,
      "គង់តែ": 9759,
      "បដិឃ": 9760,
      "proble": 9761,
      "isture": 9762,
      "ខ្នែង": 9763,
      "វិមុត្តិញ្ញាណ": 9764,
      "សន្ធាប់": 9765,
      "teach": 9766,
      "្រ្ដី": 9767,
      "ប្រុងប្រៀប": 9768,
      "សក្កទេ": 9769,
      "អៀនខ្មាស": 9770,
      "អន្ដរជាតិ": 9771,
      "សុនក្ខត្ត": 9772,
      "តម្កើង": 9773,
      "បាតុភូត": 9774,
      "Bl": 9775,
      "Clin": 9776,
      "Det": 9777,
      "Man": 9778,
      "pen": 9779,
      "គក់": 9780,
      "ឆូ": 9781,
      "ឈ្ង": 9782,
      "៧៤": 9783,
      "ប្រអប់": 9784,
      "ព្រះម": 9785,
      "ការកើនឡើង": 9786,
      "ប៉ាប": 9787,
      "បរិបទ": 9788,
      "aster": 9789,
      "enter": 9790,
      "កិច្ចាធិករណ៍": 9791,
      "ជាប់ទាក់ទង": 9792,
      "ស្វិត": 9793,
      "រៀបរយ": 9794,
      "ជាតិនិយម": 9795,
      "within": 9796,
      "២០០៣": 9797,
      "សំរួល": 9798,
      "plic": 9799,
      "ជញ្ជីង": 9800,
      "សន្និសីទ": 9801,
      "ព្រឹទ្ធាចារ្យ": 9802,
      "involv": 9803,
      "ស្ម័គ្រចិត្ត": 9804,
      "ពញាយមរាជ": 9805,
      "Swift": 9806,
      "ថ្មើរជើង": 9807,
      "29": 9808,
      "Af": 9809,
      "eas": 9810,
      "ker": 9811,
      "sus": 9812,
      "take": 9813,
      "want": 9814,
      "បទុម": 9815,
      "ភគ្គ": 9816,
      "ហូឡ": 9817,
      "ប្រយោជន": 9818,
      "ព្រះគោ": 9819,
      "ព្រះអគ្គ": 9820,
      "ព្រះពិជ័យ": 9821,
      "ការស្លាប់": 9822,
      "ការរីកចំរើន": 9823,
      "វិច": 9824,
      "ទិក្កិ": 9825,
      "ចារឹក": 9826,
      "ព្រហ្មទត្ត": 9827,
      "វិជ្ជាជីវៈ": 9828,
      "សាមី": 9829,
      "Char": 9830,
      "plac": 9831,
      "These": 9832,
      "ទារុណ": 9833,
      "ished": 9834,
      "ological": 9835,
      "សំវរៈ": 9836,
      "អង្គុលិមាល": 9837,
      "សោភ័ណ": 9838,
      "Clinical": 9839,
      "ជះ": 9840,
      "ថេន": 9841,
      "ទើស": 9842,
      "វាត": 9843,
      "សៀ": 9844,
      "ព្រះថោង": 9845,
      "ការប្រែប្រួល": 9846,
      "ចំល": 9847,
      "ទ្ធា": 9848,
      "real": 9849,
      "បំណាច់": 9850,
      "រដ្ឋប្រហារ": 9851,
      "ម៉ាស": 9852,
      "ចំពោះមុខ": 9853,
      "តំរង់": 9854,
      "សេចក្ដីព្យាយាម": 9855,
      "បរិន": 9856,
      "ived": 9857,
      "ហ្សង់": 9858,
      "ថយចុះ": 9859,
      "plan": 9860,
      "ស្នេហ៍": 9861,
      "ឥន្រ្ទ": 9862,
      "human": 9863,
      "អចិន្ត្រ": 9864,
      "ត្មាត": 9865,
      "ខួរក្បាល": 9866,
      "ភ្វូណាន": 9867,
      "កូសាំង": 9868,
      "last": 9869,
      "pass": 9870,
      "ញា": 9871,
      "ដរ": 9872,
      "ផាត់": 9873,
      "ភាន់": 9874,
      "នៅសប្បាយ": 9875,
      "អ្នកនាំ": 9876,
      "កំទេច": 9877,
      "ជ្រៀត": 9878,
      "ព្រះភាគិនេយ្យ": 9879,
      "រដ្ឋធានី": 9880,
      "កុរុ": 9881,
      "ពលកម្ម": 9882,
      "ential": 9883,
      "សូយ": 9884,
      "ចាត់ការ": 9885,
      "ability": 9886,
      "ពុករលួយ": 9887,
      "បណ្ដុះ": 9888,
      "raw": 9889,
      "៥០០០០": 9890,
      "លេចធ្លោ": 9891,
      "រួសរាន់": 9892,
      "ហិចតា": 9893,
      "ឧស្ម័ន": 9894,
      "ya": 9895,
      "ព្រះពិរោធ": 9896,
      "ការកែប្រែ": 9897,
      "ការប្រកបរបរ": 9898,
      "វិសាខ": 9899,
      "គ្រញូង": 9900,
      "កាលី": 9901,
      "សុន្ទ": 9902,
      "សិង្គ": 9903,
      "ats": 9904,
      "ately": 9905,
      "istr": 9906,
      "មេបញ្ជាការ": 9907,
      "ាញ៉េ": 9908,
      "អនុរាធ": 9909,
      "បិសុ": 9910,
      "បញ្ចកៈ": 9911,
      "ផ្តាំ": 9912,
      "សំណល់": 9913,
      "រ៉ែ": 9914,
      "ស្ថានីយ": 9915,
      "ដោះលែង": 9916,
      "មរតក": 9917,
      "ឋិតថេរ": 9918,
      "ហិច្ច": 9919,
      "កូដា": 9920,
      "លោហិច្ច": 9921,
      "ទេពកោសល្យ": 9922,
      "និមិត្តរូប": 9923,
      "១៩៩១": 9924,
      "អន្ទះ": 9925,
      "លេចឡើង": 9926,
      "វចីកម្ម": 9927,
      "កន្ទេញ": 9928,
      "ប្រមុខរដ្ឋ": 9929,
      "says": 9930,
      "កាលាមក្សត្រិយ៍": 9931,
      "mission": 9932,
      "សណ្ឋាគារ": 9933,
      "កូសាំងស៊ីន": 9934,
      "host": 9935,
      "lim": 9936,
      "កឋិន": 9937,
      "ជល": 9938,
      "ត៍": 9939,
      "សស្រ": 9940,
      "អភ": 9941,
      "ារច": 9942,
      "ថាញ់": 9943,
      "ការប្រជុំ": 9944,
      "វិបត្ដិ": 9945,
      "ខ្លែង": 9946,
      "យ៉ុង": 9947,
      "ភាពជា": 9948,
      "កាន់ពល": 9949,
      "ទ័ល": 9950,
      "គតា": 9951,
[...]
